<pad>	0
<s>	0
</s>	0
<unk>	0
<sep>	0
<emo_(>	0
<emo_a_boy_._i_hear_all_these_different_labor_stories_that_aren't_exactly_reassuring_!>	0
<emo_afraid>	0
<emo_angry>	0
<emo_annoyed>	0
<emo_anticipating>	0
<emo_anxious>	0
<emo_apprehensive>	0
<emo_ashamed>	0
<emo_but_what_i_didn't_know_was_that_he_was_working_in_the_next_room_with_the_door_open_._he_approached_and_asked_what_i_had_been_saying_._i_knew_i_was_caught_._i_was_so_disgusted_with_myself_.>	0
<emo_caring>	0
<emo_confident>	0
<emo_content>	0
<emo_devastated>	0
<emo_disappointed>	0
<emo_disgusted>	0
<emo_embarrassed>	0
<emo_excited>	0
<emo_faithful>	0
<emo_furious>	0
<emo_grateful>	0
<emo_guilty>	0
<emo_hopeful>	0
<emo_i_really_killed_it_!>	0
<emo_impressed>	0
<emo_jealous>	0
<emo_joyful>	0
<emo_lonely>	0
<emo_m_so_mad_with_my_brother_._he_stole_from_me_and_didn't_think_i_would_notice_.>	0
<emo_nan>	0
<emo_nostalgic>	0
<emo_prepared>	0
<emo_proud>	0
<emo_sad>	0
<emo_sentimental>	0
<emo_surprised>	0
<emo_t_believe_i_like_the_show_power_so_much_._i_was_never_really_into_shows_like_that>	0
<emo_t_believe_my_daughter_taught_herself_how_to_play_the_ukelele_._i_was_amazed>	0
<emo_t_even_like_scary_things>	0
<emo_t_think_i_wold_like_super_heroes>	0
<emo_terrified>	0
<emo_time_to_jump_on_the_motorcycle_and_go_cruising_!>	0
<emo_trusting>	0
<emo_we_were_in_a_different_country>	0
▁:	-2.81811
▁i	-3.04307
▁.	-3.0539
▁|	-3.11111
▁to	-3.88746
▁a	-3.97353
▁my	-4.09726
'	-4.11933
▁the	-4.13253
▁it	-4.19045
▁situation	-4.19831
▁customer	-4.2064
▁emotion	-4.20777
▁agent	-4.20891
▁,	-4.27244
s	-4.32585
▁and	-4.37295
▁was	-4.44848
▁that	-4.50673
▁!	-4.556
▁you	-4.61863
▁of	-4.88455
▁?	-4.91391
▁for	-4.94399
t	-4.94704
▁so	-4.97369
▁in	-5.00353
ing	-5.02305
ed	-5.049
▁is	-5.12034
▁have	-5.1564
▁me	-5.1643
▁am	-5.47803
▁on	-5.48737
▁with	-5.5081
▁but	-5.52935
▁be	-5.56104
▁he	-5.56912
▁when	-5.57462
m	-5.62139
▁	-5.63493
▁get	-5.67445
▁at	-5.695
▁they	-5.70472
▁just	-5.73112
▁do	-5.74281
▁had	-5.74875
▁what	-5.7809
d	-5.78623
▁really	-5.7956
▁did	-5.80523
▁out	-5.8152
▁she	-5.82146
▁not	-5.84279
▁are	-5.85111
▁can	-5.89857
▁about	-5.93815
▁like	-5.94796
▁good	-5.95657
▁time	-6.00389
▁got	-6.01243
▁up	-6.02818
▁all	-6.02972
▁this	-6.05352
▁her	-6.08024
▁we	-6.08286
▁been	-6.15404
▁going	-6.15543
▁no	-6.23772
▁oh	-6.24506
▁work	-6.25881
▁one	-6.27994
▁will	-6.2883
▁how	-6.30394
▁very	-6.32219
▁go	-6.32354
▁know	-6.35002
▁an	-6.36582
▁him	-6.37773
▁feel	-6.38821
▁some	-6.40231
▁new	-6.41298
▁day	-6.41566
▁there	-6.43605
▁well	-6.44233
▁them	-6.44993
▁too	-6.45712
▁your	-6.47665
▁from	-6.4865
▁now	-6.4942
▁friend	-6.50278
▁think	-6.50987
▁would	-6.52853
▁last	-6.53745
▁were	-6.55431
▁don	-6.56337
ve	-6.59532
y	-6.62353
▁great	-6.62829
▁back	-6.63196
▁hope	-6.68989
▁went	-6.70236
▁see	-6.71373
▁happy	-6.72711
▁bad	-6.73004
▁sure	-6.734
ly	-6.75037
▁lot	-6.7653
▁as	-6.76993
▁job	-6.77619
▁car	-6.78902
▁home	-6.79208
▁always	-6.80361
▁yes	-6.8049
▁other	-6.81245
▁didn	-6.81707
▁people	-6.81813
▁week	-6.81943
▁much	-6.8199
▁his	-6.84519
▁nice	-6.85056
▁today	-6.8508
▁yeah	-6.85808
▁hard	-6.87077
▁if	-6.88102
▁sad	-6.89242
▁old	-6.89426
▁school	-6.89506
▁felt	-6.89624
▁over	-6.90534
▁or	-6.90548
▁excited	-6.91801
▁wait	-6.92329
▁never	-6.92499
▁first	-6.93642
▁because	-6.94122
▁dog	-6.94951
▁love	-6.98193
▁surprised	-6.98825
▁someone	-6.98943
▁make	-6.99237
▁year	-7.00675
▁has	-7.00876
▁want	-7.01365
▁years	-7.02718
▁by	-7.03755
▁friends	-7.04114
▁take	-7.05432
▁off	-7.0833
▁could	-7.09846
▁more	-7.09937
▁house	-7.10339
▁family	-7.11627
▁even	-7.12189
▁proud	-7.12685
▁after	-7.12689
▁night	-7.12765
▁right	-7.14046
▁pretty	-7.14091
▁life	-7.15342
▁still	-7.15822
▁made	-7.1589
▁long	-7.17148
▁sorry	-7.17497
▁hear	-7.17749
▁kids	-7.1782
▁way	-7.18397
▁little	-7.18894
▁start	-7.19267
n	-7.22268
▁something	-7.22653
▁into	-7.22818
▁away	-7.23186
▁though	-7.23715
▁best	-7.23716
▁why	-7.25054
▁things	-7.25701
▁afraid	-7.26345
▁angry	-7.2651
▁wow	-7.2733
▁should	-7.28681
▁next	-7.29964
▁sounds	-7.3047
▁better	-7.30573
▁found	-7.31303
▁our	-7.31685
▁saw	-7.33031
▁money	-7.33431
▁who	-7.34233
▁down	-7.35519
▁weekend	-7.3605
▁fun	-7.36518
▁then	-7.36922
re	-7.37341
▁prepared	-7.3764
ll	-7.40108
▁confident	-7.40124
▁lonely	-7.40583
▁kind	-7.42128
▁find	-7.43241
able	-7.44099
▁feeling	-7.45865
▁must	-7.46158
ting	-7.46552
▁being	-7.46605
▁before	-7.46722
-	-7.46752
▁annoyed	-7.47546
▁myself	-7.47681
▁jealous	-7.47934
▁while	-7.48131
▁its	-7.4826
▁grateful	-7.48804
▁days	-7.48897
▁anxious	-7.49324
▁yesterday	-7.50198
▁guilty	-7.50303
▁terrified	-7.5125
▁need	-7.51839
▁impressed	-7.52377
▁any	-7.53031
▁their	-7.5365
▁around	-7.53894
▁awesome	-7.53968
▁disappointed	-7.53989
▁scared	-7.5435
▁recently	-7.54398
▁t	-7.54464
e	-7.54714
▁furious	-7.5521
▁son	-7.56145
▁ready	-7.56252
▁hopeful	-7.56438
▁nostalgic	-7.56533
▁through	-7.57271
▁help	-7.57421
▁disgust	-7.57608
▁big	-7.58605
▁wife	-7.59013
▁embarrassed	-7.59121
▁looking	-7.59637
▁miss	-7.59679
▁everything	-7.6038
▁few	-7.60384
▁lol	-7.60671
▁where	-7.6076
▁wanted	-7.60822
▁only	-7.60843
▁ashamed	-7.61133
▁thought	-7.61348
▁brother	-7.62246
▁content	-7.62334
▁than	-7.63697
▁thing	-7.63799
▁anything	-7.63902
▁daughter	-7.64288
▁maybe	-7.64488
▁came	-7.64612
▁ago	-7.64736
▁believe	-7.65486
▁won	-7.65569
▁us	-7.66696
▁mom	-7.67154
▁joyful	-7.67638
▁hav	-7.67739
▁doing	-7.68235
▁anticipat	-7.68274
▁sometimes	-7.68484
▁put	-7.68843
▁wish	-7.68883
▁sentimental	-7.70106
▁since	-7.70113
▁again	-7.70978
▁hate	-7.71365
▁girlfriend	-7.71542
▁left	-7.72583
▁happened	-7.72887
▁live	-7.74048
▁every	-7.74457
▁trusting	-7.74493
ok	-7.74998
▁caring	-7.75105
▁lost	-7.75192
▁keep	-7.75604
▁let	-7.75803
▁come	-7.76364
▁birthday	-7.76661
▁man	-7.77191
▁try	-7.77428
▁makes	-7.77522
▁nervous	-7.77955
st	-7.78389
▁bet	-7.78459
▁test	-7.78557
▁many	-7.78788
▁food	-7.79319
▁glad	-7.79536
▁pay	-7.79654
▁once	-7.80825
▁such	-7.81521
▁does	-7.81832
▁husband	-7.82014
▁those	-7.82885
▁care	-7.84231
▁mad	-7.84255
▁alone	-7.84574
▁same	-7.85674
▁thats	-7.85845
▁watch	-7.86326
▁look	-7.86436
▁trying	-7.86841
▁college	-7.87009
▁done	-7.87784
▁apprehensive	-7.88605
▁ever	-7.89137
▁cool	-7.89504
▁bought	-7.90299
▁tomorrow	-7.90307
▁place	-7.91106
▁upset	-7.9158
▁say	-7.92187
▁remember	-7.92848
▁favorite	-7.92972
▁trip	-7.92986
used	-7.94308
▁wasn	-7.94679
ld	-7.949
a	-7.95046
▁finally	-7.95346
▁kid	-7.95432
▁said	-7.95882
▁here	-7.96434
▁person	-7.96435
▁coming	-7.9668
▁party	-7.97501
▁parents	-7.97906
▁faithful	-7.98125
▁game	-7.98729
▁give	-7.99232
▁cat	-8.00249
▁two	-8.00253
▁everyone	-8.00352
▁show	-8.00793
▁bit	-8.0106
▁soon	-8.01324
▁high	-8.01356
▁guess	-8.02791
out	-8.03015
▁buy	-8.03051
▁month	-8.03264
▁passed	-8.03486
▁working	-8.03513
▁knew	-8.03999
▁tell	-8.04301
▁g	-8.04499
▁amazing	-8.05089
other	-8.06186
▁yea	-8.06803
▁vacation	-8.06942
▁terrible	-8.07927
▁play	-8.0907
▁dad	-8.10167
▁devastate	-8.10314
▁scary	-8.10544
▁store	-8.10697
▁im	-8.11002
▁sister	-8.11968
▁super	-8.12172
▁talk	-8.12533
▁months	-8.13167
▁eat	-8.13412
▁girl	-8.13512
▁most	-8.14118
▁2	-8.15044
▁3	-8.15192
▁also	-8.15223
▁thank	-8.15226
▁least	-8.1547
▁stay	-8.15499
▁end	-8.15806
▁almo	-8.16095
▁morning	-8.1672
▁forward	-8.17856
▁guy	-8.18508
▁nothing	-8.18572
▁mean	-8.18918
▁times	-8.18952
▁own	-8.19128
▁weeks	-8.20353
▁baby	-8.20839
▁understand	-8.21064
r	-8.21173
▁together	-8.213
▁actually	-8.21811
▁couldn	-8.22492
er	-8.22847
▁happen	-8.22881
▁quite	-8.23384
▁sick	-8.25002
▁enough	-8.25705
▁doesn	-8.2594
▁died	-8.26074
▁hit	-8.26367
▁okay	-8.27055
▁visit	-8.27476
▁might	-8.27499
▁gett	-8.28285
▁order	-8.28441
▁turn	-8.28564
▁haven	-8.28799
▁until	-8.28895
▁idea	-8.28994
▁close	-8.29509
▁clean	-8.29728
▁broke	-8.29871
▁enjoy	-8.3013
▁moved	-8.30238
▁stuff	-8.30369
▁interview	-8.30404
▁win	-8.31519
▁yet	-8.31936
▁class	-8.32012
▁summer	-8.32228
▁past	-8.32738
▁movie	-8.32808
▁move	-8.34259
▁heard	-8.34464
▁call	-8.34612
▁whole	-8.35616
▁trust	-8.36118
▁walk	-8.36959
▁thinking	-8.3739
▁"	-8.37596
▁use	-8.38033
▁thanks	-8.38066
▁ate	-8.38265
▁worried	-8.3847
▁late	-8.386
▁leave	-8.38843
▁haha	-8.39302
▁couple	-8.39828
▁front	-8.40307
▁hopefully	-8.41348
▁else	-8.41608
▁5	-8.42022
▁mine	-8.42068
▁which	-8.42585
▁date	-8.43346
▁child	-8.43351
▁drive	-8.43495
▁world	-8.438
es	-8.44291
▁ended	-8.44602
▁hurt	-8.44936
▁mother	-8.4513
▁wrong	-8.45334
▁outside	-8.45605
▁phone	-8.46383
▁forgot	-8.464
▁these	-8.46771
▁watching	-8.47073
▁anyone	-8.47413
▁memories	-8.47511
▁walking	-8.47535
▁ok	-8.47558
aking	-8.47622
▁sweet	-8.47996
ave	-8.4803
▁definitely	-8.48215
▁already	-8.48485
▁dinner	-8.48896
▁worked	-8.49655
▁probably	-8.49742
▁true	-8.49895
▁far	-8.5004
▁door	-8.50064
▁needed	-8.50369
▁neighbor	-8.50913
▁company	-8.51018
▁dont	-8.51047
▁part	-8.5121
on	-8.51993
▁boyfriend	-8.52346
▁playing	-8.52736
▁shocked	-8.52961
▁seen	-8.53942
▁driving	-8.54234
▁asked	-8.55065
▁pizza	-8.55308
▁room	-8.55553
i	-8.55588
▁open	-8.55997
▁spend	-8.56145
▁check	-8.56391
▁didnt	-8.56944
▁4	-8.57549
▁important	-8.57671
▁(	-8.57814
▁ran	-8.5782
▁break	-8.58013
▁town	-8.58313
▁gross	-8.58379
▁sleep	-8.58587
▁both	-8.59299
▁lucky	-8.59501
▁cant	-8.5957
▁seem	-8.59766
▁promotion	-8.60424
▁team	-8.60568
▁crazy	-8.61206
▁talking	-8.61325
▁seems	-8.61486
▁luck	-8.62919
▁s	-8.62948
▁grow	-8.63113
▁gone	-8.63289
▁exam	-8.63795
▁agree	-8.63924
▁boss	-8.64071
▁usually	-8.64302
▁restaurant	-8.65072
▁happens	-8.66611
▁un	-8.66718
▁bring	-8.68038
▁brough	-8.68144
▁change	-8.68161
▁yourself	-8.68763
▁sucks	-8.69083
▁-	-8.69101
▁exciting	-8.69105
▁park	-8.6913
▁road	-8.69572
▁experience	-8.69616
▁fine	-8.70023
▁dogs	-8.70051
▁called	-8.71126
▁tak	-8.71308
▁thankful	-8.71424
▁devastat	-8.71437
▁horrible	-8.71875
▁hours	-8.72389
▁stop	-8.72602
▁wouldn	-8.72783
▁each	-8.73371
▁pick	-8.73393
▁10	-8.74062
▁tonight	-8.74106
▁deal	-8.74128
▁tough	-8.74299
▁problem	-8.74346
▁)	-8.7448
▁awful	-8.74733
▁fast	-8.74794
▁pet	-8.75152
▁learn	-8.7541
▁loved	-8.75592
▁marri	-8.76964
▁paid	-8.77102
▁worst	-8.7789
"	-8.78021
▁surprise	-8.78128
▁reason	-8.7824
▁doctor	-8.78262
▁free	-8.78272
▁guys	-8.78483
▁hoping	-8.78658
▁eating	-8.78691
▁realize	-8.788
▁anymore	-8.78965
▁young	-8.7898
▁decide	-8.79147
▁wonderful	-8.7916
▁fall	-8.79225
▁run	-8.79247
▁co	-8.79279
o	-8.79459
▁fell	-8.8031
▁looked	-8.80674
▁huge	-8.81066
▁final	-8.81758
▁dur	-8.82093
▁ex	-8.82192
▁football	-8.82406
▁mak	-8.82435
▁bed	-8.83079
▁offer	-8.83098
▁accident	-8.83164
▁card	-8.83548
▁water	-8.83856
▁real	-8.84142
▁sit	-8.85266
▁different	-8.85394
▁later	-8.86102
al	-8.86114
▁expecting	-8.86256
▁supposed	-8.86304
▁children	-8.8659
▁meeting	-8.86641
▁city	-8.86823
▁lately	-8.86938
▁imagine	-8.86961
▁sound	-8.87163
▁cut	-8.87202
▁living	-8.87217
▁ask	-8.87477
▁coworker	-8.87554
▁relationship	-8.8803
▁childhood	-8.88438
▁season	-8.88809
▁meet	-8.89126
▁beach	-8.89237
▁cake	-8.89434
▁near	-8.89482
▁mind	-8.89659
▁tv	-8.90194
ies	-8.90696
▁side	-8.9098
▁raise	-8.9104
▁grandmother	-8.91192
▁congratulations	-8.91428
▁especiall	-8.91466
▁stole	-8.92318
▁father	-8.92515
▁special	-8.92583
kept	-8.92857
▁gift	-8.92882
▁full	-8.92995
▁goes	-8.93458
▁moving	-8.93817
▁pass	-8.94203
▁isn	-8.94328
▁often	-8.9504
▁f	-8.95485
▁lunch	-8.95575
▁early	-8.95726
▁either	-8.95883
▁caught	-8.95978
▁games	-8.96114
▁gonn	-8.96162
▁b	-8.96263
▁neighbors	-8.97702
▁read	-8.9795
ried	-8.98042
▁news	-8.98408
tally	-8.98558
▁m	-8.99421
▁d	-8.99452
th	-9.00126
▁exactly	-9.00315
▁annoying	-9.00361
▁cheat	-9.00402
▁weird	-9.00965
▁movies	-9.01036
▁under	-9.01093
▁throw	-9.02066
▁younger	-9.0275
▁graduate	-9.02996
l	-9.03403
▁ha	-9.03527
in	-9.03602
▁worth	-9.03864
▁heart	-9.03995
▁storm	-9.04261
▁spen	-9.04307
▁future	-9.0435
k	-9.04392
▁apartment	-9.04395
▁boy	-9.04685
▁video	-9.04825
▁christmas	-9.0485
▁instead	-9.04857
▁pull	-9.04949
▁puppy	-9.05096
▁bar	-9.05488
▁weight	-9.0591
/	-9.06301
▁threw	-9.06315
▁partner	-9.06852
▁small	-9.06996
▁fail	-9.07136
▁shopp	-9.0737
▁may	-9.07513
▁point	-9.07986
▁worry	-9.08118
▁worse	-9.08326
▁plan	-9.08757
▁easy	-9.08949
▁plans	-9.0956
▁behind	-9.09589
▁lose	-9.09633
▁yard	-9.09867
▁feels	-9.10117
▁light	-9.10197
▁afford	-9.10853
en	-9.11645
▁helped	-9.11659
est	-9.11711
▁moment	-9.11966
ally	-9.11989
▁bunch	-9.12402
▁busy	-9.12525
▁grade	-9.12639
▁cute	-9.12692
▁comes	-9.12708
▁ticket	-9.1278
ble	-9.13042
▁god	-9.13051
▁online	-9.13269
▁state	-9.13485
▁head	-9.13499
▁face	-9.13667
▁entire	-9.1368
▁extra	-9.13855
▁music	-9.14008
▁business	-9.14322
▁running	-9.14322
▁difficult	-9.14337
▁project	-9.14847
turned	-9.15077
▁three	-9.15396
▁met	-9.15614
▁20	-9.1617
▁hot	-9.1617
ever	-9.16457
▁second	-9.1676
▁fix	-9.16766
▁6	-9.16842
▁law	-9.17019
▁country	-9.17049
▁course	-9.17183
▁rain	-9.17543
▁truck	-9.17562
▁couldnt	-9.17897
▁poop	-9.18062
▁street	-9.183
▁mess	-9.18327
▁semester	-9.1842
▁pregnant	-9.18708
▁mail	-9.19167
▁drink	-9.19369
▁nephew	-9.19543
▁remind	-9.19659
▁police	-9.19851
▁results	-9.20131
▁trouble	-9.20197
▁type	-9.20536
▁older	-9.21119
▁ride	-9.21397
▁8	-9.21472
▁luckily	-9.21559
▁cannot	-9.22034
▁appli	-9.2229
▁math	-9.22479
▁fight	-9.2253
▁studying	-9.23103
▁positive	-9.23164
▁c	-9.23299
▁concert	-9.23532
▁expensive	-9.23586
▁girls	-9.24263
▁tri	-9.24277
▁planned	-9.2445
▁name	-9.24844
▁half	-9.24882
▁shouldn	-9.25032
▁pants	-9.25218
▁rest	-9.25596
▁inside	-9.26465
▁pain	-9.26466
▁deserve	-9.26738
▁minutes	-9.27134
▁coffee	-9.27186
▁wedding	-9.27494
▁certain	-9.27495
▁smell	-9.27882
▁self	-9.28025
▁manager	-9.28223
▁health	-9.28723
▁dropp	-9.28865
▁line	-9.29502
▁smart	-9.29603
▁played	-9.29621
▁traffic	-9.29657
▁congrats	-9.29683
▁funny	-9.29684
▁dark	-9.29749
▁interesting	-9.29823
)	-9.2987
▁set	-9.30011
ook	-9.30165
▁keeps	-9.30435
tery	-9.30542
▁jump	-9.30779
▁dream	-9.31022
▁completely	-9.31589
▁ga	-9.31615
▁envious	-9.31871
▁wear	-9.31913
▁born	-9.32205
▁plann	-9.32212
▁area	-9.32271
▁forever	-9.32467
less	-9.32613
▁beautiful	-9.32837
▁single	-9.32842
▁stand	-9.33014
▁pictures	-9.33122
▁cover	-9.33214
▁teacher	-9.33236
▁catch	-9.33263
▁cause	-9.33349
▁age	-9.33668
▁office	-9.33766
▁others	-9.33814
▁clothes	-9.33823
ng	-9.3383
▁trash	-9.3447
▁grandma	-9.34475
▁across	-9.34511
▁middle	-9.34639
▁grocer	-9.34819
ion	-9.34994
▁rid	-9.34996
▁li	-9.35062
▁position	-9.35475
▁woke	-9.35566
▁chance	-9.36059
▁credit	-9.36121
▁expect	-9.36194
▁window	-9.3639
▁hold	-9.36391
▁book	-9.3647
▁neighborhood	-9.37469
ation	-9.37644
▁study	-9.37707
▁wallet	-9.37805
▁cancer	-9.37819
▁safe	-9.38135
▁relax	-9.38237
▁1	-9.38317
or	-9.38772
▁tickets	-9.38865
▁local	-9.39073
▁weather	-9.39228
▁step	-9.39954
▁perfect	-9.39995
▁earlier	-9.4021
▁less	-9.40405
▁wonder	-9.40501
▁forget	-9.40721
▁due	-9.4102
▁works	-9.41061
▁leaving	-9.4128
▁listen	-9.41567
▁save	-9.4187
▁studie	-9.41926
▁hour	-9.4208
▁insurance	-9.4235
ment	-9.42397
▁case	-9.42416
▁everyday	-9.43082
▁unfortunately	-9.43441
▁bag	-9.43757
▁diet	-9.43944
▁computer	-9.44157
▁follow	-9.44202
▁hospital	-9.44483
▁cousin	-9.44508
▁receive	-9.44651
▁dead	-9.44663
▁smash	-9.44835
▁bathroom	-9.44837
▁15	-9.45049
▁hang	-9.45242
▁absolute	-9.45873
▁monday	-9.45935
▁cry	-9.4611
▁hair	-9.46181
▁gym	-9.463
▁frustrating	-9.46409
▁kinda	-9.46437
▁fan	-9.46656
▁figure	-9.46796
▁sent	-9.46802
▁quiet	-9.47044
▁finished	-9.47139
▁appreciate	-9.47507
▁rough	-9.47652
▁friday	-9.48128
▁unexpected	-9.48205
▁loud	-9.48496
▁lady	-9.48554
▁anyway	-9.48691
▁matter	-9.48949
▁starts	-9.49094
▁al	-9.49187
▁ah	-9.49243
▁cost	-9.4954
▁faith	-9.49686
▁animals	-9.50277
▁aw	-9.50408
▁group	-9.50456
▁ice	-9.50653
▁along	-9.50711
us	-9.50793
▁secret	-9.50863
▁woman	-9.50873
▁broken	-9.50975
▁bills	-9.51014
at	-9.51088
▁poor	-9.5117
▁ugh	-9.51193
▁telling	-9.51269
▁yell	-9.51378
▁loan	-9.51468
▁become	-9.51634
▁score	-9.51745
▁coworkers	-9.51751
▁meal	-9.52034
▁tired	-9.52226
▁fair	-9.5277
▁brand	-9.52817
▁30	-9.5282
▁return	-9.5283
▁word	-9.52849
▁invite	-9.52949
▁support	-9.53661
▁yep	-9.53993
▁top	-9.54572
▁healthy	-9.54579
▁gas	-9.54787
▁band	-9.54957
▁training	-9.55184
▁black	-9.55189
▁expected	-9.55814
▁kitchen	-9.56001
▁sort	-9.56153
▁bus	-9.56236
▁spill	-9.5626
▁crush	-9.56524
an	-9.5669
▁star	-9.56742
▁drunk	-9.56816
▁p	-9.56908
▁relaxing	-9.56939
▁bank	-9.57094
▁asking	-9.57166
▁die	-9.57251
▁service	-9.57295
▁choice	-9.57643
h	-9.58203
▁box	-9.58367
nt	-9.58422
▁cats	-9.58568
▁missing	-9.58995
▁steal	-9.5907
▁cook	-9.59213
▁quickly	-9.59353
▁parking	-9.59544
▁borrow	-9.59688
▁fire	-9.598
▁classes	-9.59876
▁lives	-9.59943
▁needs	-9.60133
▁speech	-9.60162
▁helping	-9.60172
▁red	-9.60447
▁random	-9.60588
▁camping	-9.60818
▁train	-9.60926
▁floor	-9.61451
▁stopped	-9.61465
old	-9.61541
▁beat	-9.61587
▁trie	-9.61967
▁cup	-9.62084
▁stupid	-9.62133
is	-9.6216
▁photos	-9.62189
▁piece	-9.62306
▁animal	-9.62513
▁dress	-9.62669
▁ones	-9.62733
▁los	-9.62813
▁cheating	-9.62935
▁issues	-9.63032
▁laugh	-9.63416
▁bill	-9.635
▁w	-9.63579
▁indeed	-9.63627
▁thankfully	-9.63889
▁noticed	-9.63927
▁pool	-9.64159
▁dollars	-9.64256
w	-9.64657
▁shoes	-9.64849
▁short	-9.64934
▁trump	-9.64945
▁stepp	-9.6508
time	-9.65231
giving	-9.65382
▁honest	-9.65756
▁church	-9.65848
me	-9.65955
c	-9.6613
▁surgery	-9.66319
▁ground	-9.66597
▁finish	-9.66611
▁amount	-9.66766
▁changed	-9.669
▁awhile	-9.66907
▁social	-9.67005
it	-9.67086
▁helps	-9.67154
▁crash	-9.672
▁cream	-9.67356
▁quit	-9.67432
▁aren	-9.67452
▁control	-9.67816
▁kick	-9.67948
▁large	-9.68124
▁cooking	-9.68154
▁cancel	-9.6835
▁present	-9.68483
▁power	-9.68748
▁rug	-9.68751
▁serious	-9.68942
▁saying	-9.69204
▁dang	-9.69543
▁returned	-9.69594
▁th	-9.69851
▁sign	-9.69986
▁aww	-9.69993
▁blood	-9.70005
▁decid	-9.70031
▁scare	-9.70186
ther	-9.70271
▁parent	-9.70296
▁treat	-9.70307
▁degree	-9.70341
▁hand	-9.70349
▁noise	-9.70807
▁chocolate	-9.70909
coming	-9.7108
▁st	-9.71125
▁aunt	-9.71201
▁fear	-9.71247
▁knows	-9.71255
▁sunday	-9.71278
▁disney	-9.71856
▁7	-9.71865
▁slow	-9.72324
▁attention	-9.7235
▁cruise	-9.72355
▁land	-9.72363
▁major	-9.72405
worker	-9.72534
▁freak	-9.72635
▁tru	-9.72678
▁stayed	-9.72872
▁snake	-9.73234
▁eventually	-9.73304
▁answer	-9.73322
▁driver	-9.73915
▁everywhere	-9.7431
▁act	-9.74534
▁florida	-9.74776
▁mistake	-9.74848
▁shows	-9.74983
▁whenever	-9.75026
tuck	-9.75056
▁roommate	-9.75174
▁rent	-9.75896
ful	-9.75995
▁candy	-9.76343
▁pray	-9.76674
▁rude	-9.76754
▁song	-9.76775
▁nope	-9.76817
▁honestly	-9.76851
▁blame	-9.77004
▁saved	-9.77231
▁r	-9.77729
▁impressive	-9.77767
▁longer	-9.77816
▁attack	-9.77844
▁please	-9.77983
▁promise	-9.78019
ball	-9.782
▁package	-9.7827
▁fly	-9.78613
▁switch	-9.78781
ten	-9.78843
▁accidental	-9.78898
te	-9.79154
▁presentation	-9.79325
▁finger	-9.79348
▁lawn	-9.79537
▁tree	-9.79557
ity	-9.79743
▁loss	-9.79765
▁embarrassing	-9.79851
▁manage	-9.80112
▁soccer	-9.80318
▁sisters	-9.80353
▁saving	-9.80464
▁roller	-9.80949
▁sense	-9.80951
▁goodness	-9.81046
▁ghost	-9.81363
▁death	-9.81365
▁graduat	-9.81463
way	-9.81469
▁wreck	-9.81553
▁consider	-9.81886
▁public	-9.81894
▁easier	-9.81907
▁strange	-9.81908
▁dent	-9.8213
▁touch	-9.82136
▁bonus	-9.82406
▁supplies	-9.82421
▁re	-9.82638
▁speed	-9.82889
▁cried	-9.83135
▁sat	-9.83288
le	-9.83367
▁financial	-9.83394
▁competition	-9.83489
▁stressful	-9.83494
▁send	-9.83611
▁daughters	-9.83756
▁fixed	-9.83826
▁lie	-9.83901
live	-9.83958
▁exams	-9.84369
▁story	-9.84459
▁fit	-9.84462
▁enjoyed	-9.84501
▁extreme	-9.84514
▁complain	-9.84571
▁taste	-9.84936
▁o	-9.84965
▁brothers	-9.84999
▁stress	-9.85027
▁ruin	-9.85056
▁count	-9.85056
▁alright	-9.85118
▁bother	-9.85621
▁possible	-9.85716
▁shop	-9.85803
▁charge	-9.86014
▁h	-9.8602
▁scratch	-9.8608
▁contact	-9.86211
▁bird	-9.86294
ce	-9.86345
▁wasnt	-9.86464
ness	-9.86579
▁nintendo	-9.86757
▁chicken	-9.86763
▁contest	-9.86809
▁accepted	-9.88272
▁baseball	-9.88433
▁decision	-9.88433
▁nasty	-9.88434
▁vomit	-9.88453
▁learning	-9.8848
▁nerve	-9.88572
▁goal	-9.88717
▁cheap	-9.88753
▁hi	-9.8877
▁fault	-9.89021
▁adult	-9.89624
▁ahead	-9.89863
▁hallowee	-9.90241
▁attend	-9.90354
▁current	-9.90633
▁university	-9.90714
▁winning	-9.90732
▁shame	-9.91222
▁grandfather	-9.91292
age	-9.91343
▁bowl	-9.9154
▁notice	-9.91747
▁blue	-9.91764
▁speak	-9.91788
▁sun	-9.91795
▁careful	-9.91865
▁picture	-9.91974
▁stinks	-9.92067
▁knowing	-9.92073
▁spot	-9.92144
g	-9.92163
▁question	-9.92458
▁himself	-9.92514
▁pets	-9.92541
▁rescue	-9.92916
▁miles	-9.92927
▁leg	-9.93175
▁bros	-9.93197
▁happening	-9.93227
▁suppose	-9.93277
▁cars	-9.93413
▁disgusting	-9.9343
▁share	-9.93526
▁killed	-9.93555
▁delicious	-9.93636
▁anxiety	-9.93637
▁buddy	-9.93675
ey	-9.9374
▁push	-9.93838
▁pack	-9.93978
▁join	-9.9403
▁wa	-9.94124
▁empty	-9.94232
▁hungry	-9.9483
▁flight	-9.94854
▁18	-9.95569
▁text	-9.95606
to	-9.95811
▁studi	-9.95907
▁weren	-9.95954
▁garden	-9.96041
▁repair	-9.96073
▁winter	-9.96092
▁eyes	-9.96283
▁adopt	-9.96302
▁normal	-9.96586
▁anothe	-9.96604
▁loyal	-9.96646
▁system	-9.96702
▁number	-9.96844
▁pound	-9.96846
▁accept	-9.96896
▁12	-9.96905
▁starte	-9.97185
▁flying	-9.97213
▁ma	-9.97302
▁pissed	-9.97309
▁amazed	-9.97323
▁arrive	-9.9746
▁deep	-9.97906
▁research	-9.97998
▁minute	-9.98009
ry	-9.98112
▁afterwards	-9.98156
▁u	-9.98237
▁words	-9.98273
▁strong	-9.98331
▁badly	-9.98371
▁internet	-9.98512
▁bummer	-9.98517
▁handle	-9.98778
▁building	-9.98807
▁cold	-9.98897
up	-9.99067
▁hurricane	-9.99949
▁anticipati	-10.0021
▁practice	-10.0032
▁jobs	-10.0052
▁shot	-10.0062
▁anywhere	-10.0106
▁human	-10.0111
▁photo	-10.0149
▁niece	-10.0166
▁report	-10.0168
▁air	-10.0171
▁celebrate	-10.019
▁j	-10.0216
▁travel	-10.0216
▁packed	-10.0217
ted	-10.022
▁list	-10.023
▁satisfied	-10.0231
▁anniversary	-10.0232
▁carpet	-10.0236
▁foot	-10.0246
▁somewhere	-10.0247
▁spider	-10.0251
▁hahaha	-10.0267
▁peace	-10.0273
▁cleaned	-10.0283
▁clear	-10.0286
▁hasn	-10.0318
▁couch	-10.0363
▁body	-10.038
▁student	-10.0385
▁feet	-10.0395
comfortable	-10.0441
▁bug	-10.0443
▁dating	-10.0454
▁four	-10.0456
ous	-10.0461
▁issue	-10.0464
▁nerves	-10.0485
▁sleeping	-10.049
▁babies	-10.0495
▁distance	-10.0499
etting	-10.0503
▁cheese	-10.0535
▁low	-10.0549
▁item	-10.0551
▁rat	-10.0558
▁beer	-10.0588
▁patient	-10.0632
and	-10.0643
▁shirt	-10.066
▁marriage	-10.0697
▁focus	-10.0698
▁cookies	-10.0724
▁kill	-10.0731
▁sell	-10.0745
▁rock	-10.0749
▁basement	-10.0763
▁homeles	-10.077
▁herself	-10.0775
▁n	-10.0783
▁appointment	-10.0795
f	-10.0807
man	-10.0808
▁roll	-10.0813
▁effort	-10.083
▁memory	-10.0832
▁promoted	-10.0833
▁l	-10.0835
▁themselves	-10.0836
▁vet	-10.0836
▁asleep	-10.0858
▁ya	-10.0859
▁damage	-10.0877
▁stranger	-10.0941
▁eye	-10.0944
▁basic	-10.0956
▁mostly	-10.0963
ied	-10.0966
▁terrifying	-10.0971
▁color	-10.1006
lly	-10.1023
▁le	-10.1029
▁teach	-10.1033
▁places	-10.1053
▁trick	-10.1061
▁sold	-10.1067
▁drinking	-10.1084
▁mall	-10.1091
▁prepare	-10.1092
▁stressed	-10.1103
▁laptop	-10.111
▁facebook	-10.111
▁incredibl	-10.1111
▁pair	-10.1131
▁enter	-10.1132
▁saturday	-10.1181
▁swimming	-10.1183
▁graduation	-10.1184
most	-10.1198
nna	-10.1217
ate	-10.1232
▁hadn	-10.125
▁process	-10.1252
▁wont	-10.127
▁meant	-10.1271
▁post	-10.1281
▁cash	-10.1292
▁toilet	-10.1296
▁key	-10.1301
▁rush	-10.1311
▁bike	-10.133
▁race	-10.1337
▁gold	-10.1353
▁event	-10.1359
▁career	-10.1373
▁unfortunate	-10.1388
▁table	-10.1394
▁kitten	-10.1397
room	-10.1399
▁gosh	-10.1412
▁coaster	-10.1438
filled	-10.1454
▁debt	-10.1456
▁dumb	-10.1461
▁stomach	-10.1469
▁bummed	-10.147
▁groceries	-10.1472
▁wake	-10.1489
▁letter	-10.1495
▁stolen	-10.1516
▁track	-10.1535
▁13	-10.154
▁fired	-10.1543
▁toys	-10.1543
▁de	-10.1546
▁emotional	-10.1549
▁avoid	-10.1552
haunted	-10.1609
▁sandwich	-10.1619
▁emergenc	-10.162
▁plane	-10.1639
▁drop	-10.1666
▁omg	-10.169
▁gre	-10.1712
▁inform	-10.1713
▁employee	-10.1714
▁boat	-10.1788
her	-10.1825
▁deliver	-10.1836
▁50	-10.184
ween	-10.1842
▁calm	-10.185
▁severa	-10.187
▁9	-10.187
▁license	-10.1877
▁bare	-10.1887
▁lazy	-10.1918
aught	-10.1925
▁prepar	-10.1957
▁recover	-10.1981
▁dentist	-10.1996
▁mcdonald	-10.1998
▁fact	-10.2003
ary	-10.204
▁dollar	-10.2042
given	-10.2061
▁feelings	-10.2066
▁tournament	-10.2074
field	-10.2076
▁pays	-10.2089
▁drivers	-10.2093
▁hide	-10.2094
▁account	-10.2107
▁fresh	-10.2118
▁honor	-10.2132
▁uh	-10.2151
▁pride	-10.2152
mon	-10.2152
▁ho	-10.2164
▁seriously	-10.2172
ive	-10.2178
▁fiance	-10.2231
▁schedule	-10.2231
▁six	-10.2234
▁doubt	-10.2236
▁purchase	-10.224
▁mouth	-10.2242
▁shower	-10.2255
ery	-10.2266
▁hands	-10.2272
▁america	-10.231
▁boring	-10.2315
▁swim	-10.2324
▁paper	-10.2326
▁holiday	-10.2359
▁replace	-10.2363
u	-10.2368
▁joy	-10.2378
▁uncle	-10.238
▁burger	-10.2386
▁ball	-10.2394
my	-10.2399
tic	-10.24
ty	-10.2403
▁closed	-10.242
▁reach	-10.2421
▁twice	-10.247
▁gotte	-10.2477
▁concern	-10.2488
▁complete	-10.2514
▁performance	-10.2552
▁conversation	-10.2552
▁level	-10.2552
▁feed	-10.257
▁south	-10.2575
▁hanging	-10.2585
▁toward	-10.2595
▁students	-10.2605
▁fat	-10.2612
▁skills	-10.2616
▁confidence	-10.2643
▁grand	-10.266
▁award	-10.2665
work	-10.267
▁allow	-10.2671
though	-10.2684
▁general	-10.2703
▁books	-10.2708
▁horror	-10.2716
▁advice	-10.2716
▁optimistic	-10.2716
▁dude	-10.2721
▁simple	-10.2722
▁bigge	-10.2728
▁normally	-10.2729
▁approved	-10.273
▁fishing	-10.276
▁poke	-10.2774
▁beyond	-10.28
▁yup	-10.2804
▁suddenly	-10.2806
▁robbe	-10.2806
▁space	-10.281
▁40	-10.2875
▁particular	-10.2885
▁nail	-10.2887
▁litera	-10.2895
▁lake	-10.2901
as	-10.2907
king	-10.2932
▁lead	-10.2937
▁decen	-10.2963
▁awkward	-10.297
▁involved	-10.2985
▁divorce	-10.3015
▁york	-10.3054
▁blast	-10.3059
▁continue	-10.3069
▁calling	-10.3108
ripped	-10.3112
▁physic	-10.3116
▁gifts	-10.3137
▁successful	-10.3138
▁similar	-10.314
▁shelter	-10.314
▁relative	-10.3141
▁spray	-10.3142
▁recipe	-10.3147
▁realiz	-10.3147
▁plus	-10.3151
▁station	-10.3153
▁war	-10.3177
▁warm	-10.3205
▁shock	-10.3223
▁heartbroken	-10.3227
▁plant	-10.3233
▁cross	-10.3252
▁court	-10.3261
▁board	-10.3282
▁regret	-10.3314
▁spouse	-10.3314
▁roof	-10.3324
▁ten	-10.3325
▁physical	-10.3347
▁harder	-10.3362
▁scream	-10.3367
p	-10.3379
▁alot	-10.3383
▁regular	-10.3403
▁dangerous	-10.3403
▁nose	-10.3411
▁flowers	-10.3417
▁spoke	-10.3422
▁mistakes	-10.3429
▁depressed	-10.343
▁apart	-10.3438
eagle	-10.3481
▁di	-10.3482
▁talent	-10.3483
▁fish	-10.3484
▁yikes	-10.3492
land	-10.3499
▁stick	-10.3503
▁mark	-10.3507
▁passing	-10.3508
▁sports	-10.3552
▁constant	-10.3556
▁attitude	-10.3566
▁basket	-10.3582
▁backyard	-10.3585
am	-10.3588
▁dirty	-10.3592
▁cooked	-10.3602
▁destroyed	-10.3607
▁explain	-10.3618
▁headed	-10.3653
▁rare	-10.3657
▁garage	-10.3673
▁note	-10.3677
▁cancelled	-10.3679
▁match	-10.369
▁payment	-10.3692
▁dro	-10.3698
▁somehow	-10.3698
▁earn	-10.3701
▁closer	-10.3728
▁camp	-10.3739
came	-10.3756
▁desk	-10.3765
▁thanksgiving	-10.3769
▁odd	-10.3774
▁16	-10.3776
▁keys	-10.3781
nd	-10.3783
▁lane	-10.3785
▁pe	-10.3788
he	-10.3795
▁irritate	-10.3814
what	-10.3815
▁breakfast	-10.3858
▁etc	-10.386
▁tooth	-10.3879
▁k	-10.3887
▁struggl	-10.3903
▁flood	-10.3913
▁approach	-10.3946
▁ba	-10.3947
▁;	-10.3948
▁subject	-10.3951
▁double	-10.397
▁grass	-10.3977
ked	-10.3998
▁stock	-10.4002
the	-10.4044
▁hockey	-10.4045
▁senior	-10.4045
▁women	-10.4045
▁easily	-10.4045
▁milk	-10.4046
▁grades	-10.4054
▁moments	-10.4058
▁disappoint	-10.4092
▁$20	-10.4122
▁dr	-10.4123
▁fart	-10.4127
▁period	-10.414
▁behavior	-10.4141
turns	-10.4152
▁pumped	-10.4153
▁blow	-10.417
▁hell	-10.4194
▁relate	-10.4205
▁spiders	-10.4207
▁scholarship	-10.4226
▁depend	-10.4262
▁practicing	-10.4263
▁pig	-10.4264
▁loose	-10.4291
day	-10.4305
▁progress	-10.4312
▁cashier	-10.4334
▁nobody	-10.4336
▁burned	-10.4364
▁youtube	-10.4382
▁ripped	-10.4393
▁stage	-10.4441
ers	-10.446
▁hitting	-10.4474
▁gun	-10.4487
▁tire	-10.4492
▁market	-10.45
▁dance	-10.4526
▁tip	-10.453
▁tornado	-10.4531
▁third	-10.4531
▁laughing	-10.4533
▁total	-10.4533
▁white	-10.4539
▁ac	-10.4552
▁build	-10.4556
▁sh	-10.4558
▁dish	-10.4564
▁medica	-10.4566
▁size	-10.4568
▁receiv	-10.4597
▁pre	-10.4606
▁quick	-10.4617
▁except	-10.4629
▁opportunity	-10.4631
▁straight	-10.4636
▁none	-10.4653
▁ra	-10.4676
▁correct	-10.4687
ta	-10.471
ent	-10.4726
▁landlord	-10.4732
▁fantastic	-10.4732
▁education	-10.4733
▁nurs	-10.4733
▁teenager	-10.4742
fully	-10.4749
▁evening	-10.4751
▁block	-10.4797
▁program	-10.4827
▁arm	-10.4829
▁glass	-10.4831
▁million	-10.4836
▁mood	-10.4843
▁helpful	-10.4848
▁lesson	-10.4851
▁oldest	-10.4872
▁coasters	-10.4888
▁task	-10.4896
all	-10.4914
▁knock	-10.492
wards	-10.4924
▁14	-10.4925
▁garbage	-10.4937
▁apparently	-10.4937
▁refund	-10.4937
▁security	-10.4939
▁oil	-10.4959
▁peaceful	-10.4973
▁knocked	-10.4979
▁gain	-10.5005
▁jerk	-10.5019
▁result	-10.5034
▁somebody	-10.5044
▁discover	-10.5045
▁mix	-10.5049
▁holidays	-10.508
▁dis	-10.509
▁whe	-10.511
▁doctors	-10.5117
▁/	-10.512
▁mower	-10.5135
▁dump	-10.5142
▁specific	-10.5145
▁relief	-10.5146
▁90	-10.5153
▁spring	-10.5156
▁noises	-10.5177
▁tend	-10.519
▁amuse	-10.5193
▁bake	-10.5197
▁remembered	-10.52
▁100	-10.5235
▁supervisor	-10.5253
▁alarm	-10.5255
▁diaper	-10.5256
▁paycheck	-10.5259
▁youngest	-10.526
▁currently	-10.527
▁professional	-10.5286
▁sometime	-10.5306
▁crossed	-10.5307
▁shut	-10.5335
▁immediately	-10.5361
▁sugar	-10.5364
▁bigger	-10.5372
▁bright	-10.5408
▁ring	-10.5436
▁carry	-10.5456
▁lovely	-10.5461
▁porch	-10.5468
▁vehicle	-10.5469
▁teeth	-10.5469
▁giant	-10.547
▁ditch	-10.5473
▁delivery	-10.549
▁000	-10.549
▁abused	-10.5506
▁confront	-10.551
▁owner	-10.5517
▁y	-10.553
▁respect	-10.5532
▁player	-10.5561
▁raining	-10.5567
▁furniture	-10.5579
▁therapy	-10.558
▁texas	-10.558
▁property	-10.5581
▁direction	-10.5582
▁machine	-10.5583
▁steak	-10.5586
▁media	-10.561
▁applying	-10.5617
▁mortif	-10.5624
▁shape	-10.5632
▁interested	-10.5637
▁woods	-10.5647
▁e	-10.5651
bron	-10.5659
▁flat	-10.5675
▁energy	-10.5693
▁corner	-10.5695
▁fence	-10.5697
▁grandparents	-10.5708
▁refuse	-10.5714
▁appreciated	-10.5724
▁bu	-10.5734
▁gate	-10.5737
el	-10.5745
rs	-10.5746
town	-10.5759
▁sudden	-10.5793
▁afternoon	-10.5802
▁toddler	-10.5808
▁prize	-10.5812
ated	-10.5845
▁success	-10.585
▁occasion	-10.5896
▁purse	-10.5916
ridge	-10.5924
▁crowd	-10.5928
▁birth	-10.593
▁cell	-10.5941
▁alcohol	-10.5943
▁irritating	-10.5946
▁awe	-10.5957
▁poope	-10.5977
▁teaching	-10.5994
▁comfort	-10.6005
▁dishe	-10.6007
▁perhaps	-10.6031
▁english	-10.6031
▁ridiculous	-10.6031
▁reunion	-10.6031
by	-10.6034
▁mow	-10.6042
▁heights	-10.6052
▁suck	-10.6054
00	-10.6085
▁kiss	-10.6089
b	-10.6091
▁locked	-10.6117
▁personal	-10.6144
eaten	-10.6145
▁hotel	-10.6148
▁swear	-10.615
▁dragon	-10.6151
▁fl	-10.6161
▁price	-10.6162
▁interest	-10.6164
▁financially	-10.6168
▁picking	-10.6201
▁paint	-10.6202
▁qualit	-10.6219
▁wasted	-10.6226
▁til	-10.6226
till	-10.6226
▁advance	-10.6246
▁volunteer	-10.6265
▁cable	-10.6267
▁email	-10.6269
▁insane	-10.6273
▁vega	-10.629
▁climb	-10.6293
▁shake	-10.6304
▁dreams	-10.6307
workers	-10.6316
▁wild	-10.6349
▁seat	-10.6363
▁speaking	-10.6363
▁tho	-10.6365
▁nightmare	-10.6384
▁president	-10.6388
▁lay	-10.6417
cake	-10.6447
▁despi	-10.6462
▁albums	-10.6465
▁lying	-10.6495
▁parts	-10.6505
▁pro	-10.6506
▁above	-10.6508
▁humiliat	-10.6529
▁pl	-10.653
▁crawl	-10.6543
▁11	-10.6547
▁exercise	-10.6559
▁communit	-10.6563
▁25	-10.6598
▁sales	-10.6613
▁awww	-10.6616
▁chas	-10.6624
▁engaged	-10.6634
▁apple	-10.6635
▁prefer	-10.664
▁spoil	-10.6644
▁fed	-10.6646
▁record	-10.6648
▁pot	-10.6652
ts	-10.6657
▁waste	-10.6659
▁da	-10.6679
▁higher	-10.6697
▁soft	-10.6722
▁guitar	-10.6749
▁walmart	-10.6749
▁department	-10.675
▁argument	-10.675
▁accomplishment	-10.6764
▁lock	-10.6772
▁havent	-10.6774
▁supris	-10.6789
▁sing	-10.6815
box	-10.6848
▁achieve	-10.6851
4	-10.6866
▁crap	-10.6882
▁pretend	-10.6886
▁friendship	-10.6902
▁loving	-10.6917
▁risk	-10.6918
▁lott	-10.6922
▁sale	-10.6925
tting	-10.6941
▁boys	-10.6958
▁skill	-10.6968
▁happie	-10.6997
▁vacuum	-10.7001
▁damn	-10.7002
▁stories	-10.7002
▁recent	-10.7003
▁thrilled	-10.7017
▁proper	-10.7029
ish	-10.7032
▁bless	-10.7033
▁per	-10.7043
▁onto	-10.7047
▁grad	-10.7053
bility	-10.7057
▁blind	-10.7071
▁worker	-10.7081
ar	-10.7113
▁whoa	-10.7124
▁bottle	-10.7129
▁hawaii	-10.713
▁supportive	-10.7132
▁thrones	-10.7135
▁creepy	-10.7139
▁heat	-10.7142
▁bread	-10.7154
ouch	-10.7158
▁search	-10.7161
▁leftover	-10.7171
uck	-10.718
▁promis	-10.7186
▁struggle	-10.7196
▁sto	-10.7201
▁spell	-10.7212
▁message	-10.7214
▁ignore	-10.7214
▁rode	-10.7222
▁skydiv	-10.7259
▁pregnancy	-10.726
▁miserable	-10.7261
▁uncomfortable	-10.7262
▁write	-10.7268
▁held	-10.727
▁perform	-10.7277
▁pa	-10.7278
▁lift	-10.7284
▁ohh	-10.7286
ny	-10.7289
▁circu	-10.7294
▁guard	-10.7321
▁screaming	-10.7325
ance	-10.7326
▁sweat	-10.7349
▁natural	-10.7356
▁traveling	-10.7359
▁200	-10.7365
here	-10.7376
▁value	-10.7384
▁ace	-10.7389
▁abandon	-10.7391
▁airport	-10.7391
▁client	-10.7391
▁taco	-10.7391
▁mario	-10.7392
▁club	-10.7408
▁stray	-10.7412
▁invit	-10.7429
▁screen	-10.7435
▁master	-10.7458
▁joke	-10.7463
rank	-10.7467
▁tear	-10.7472
enty	-10.7482
▁drugs	-10.7483
▁selling	-10.7486
▁film	-10.7507
▁v	-10.7509
▁apply	-10.7509
▁turtle	-10.7524
▁hundred	-10.7524
▁mention	-10.7525
▁league	-10.7528
▁laid	-10.7529
▁calcul	-10.755
▁chat	-10.7553
▁sink	-10.7555
▁highway	-10.7562
▁fi	-10.7563
▁mile	-10.7575
ic	-10.7577
▁bear	-10.7577
▁wrot	-10.7586
▁members	-10.7602
▁cheer	-10.7606
▁upsetting	-10.7616
nah	-10.7623
▁lb	-10.7634
▁arriv	-10.7645
▁interviews	-10.7645
▁las	-10.7657
▁casino	-10.7659
▁respond	-10.7661
▁earth	-10.7663
▁lo	-10.7663
▁difference	-10.7666
▁spit	-10.7687
▁si	-10.7692
▁hired	-10.7693
stairs	-10.77
▁dread	-10.7709
▁neat	-10.7715
x	-10.7719
▁pleasant	-10.7723
▁caus	-10.7793
▁funeral	-10.7796
▁thurs	-10.7797
▁series	-10.7798
▁elder	-10.78
▁peeved	-10.7803
▁daycare	-10.7813
▁heck	-10.7813
▁member	-10.7815
▁snacks	-10.7843
▁knee	-10.7845
▁style	-10.7846
▁bite	-10.7861
▁assume	-10.7876
▁shoe	-10.7883
▁beginn	-10.7887
taken	-10.7904
▁mu	-10.7911
▁pee	-10.7918
▁app	-10.7927
▁motorcycle	-10.7935
▁otherwise	-10.7936
▁printer	-10.7936
▁waitress	-10.7937
▁shining	-10.7938
▁row	-10.7942
▁negative	-10.7943
▁bored	-10.7948
ems	-10.795
▁chose	-10.7956
▁anytime	-10.7965
▁wall	-10.7971
▁fairly	-10.7971
slept	-10.7974
▁wood	-10.8005
▁meat	-10.8019
ence	-10.8021
▁breath	-10.8022
▁especial	-10.8022
id	-10.8028
▁$50	-10.804
▁nap	-10.8043
▁cherish	-10.8058
▁$100	-10.8075
▁kindergarten	-10.8076
▁soup	-10.809
▁ending	-10.8092
▁histor	-10.8107
▁walke	-10.812
▁admit	-10.8125
▁dealing	-10.8145
▁cheate	-10.8151
▁beside	-10.816
▁accomplish	-10.816
▁serve	-10.8172
▁travell	-10.8189
ged	-10.819
▁rely	-10.8208
▁bachelor	-10.8219
▁tinder	-10.8219
▁application	-10.8219
▁crime	-10.8222
em	-10.8231
▁flirt	-10.8244
▁ways	-10.8245
▁drama	-10.8251
▁appreciati	-10.8256
pa	-10.8285
▁cops	-10.8286
▁hurts	-10.8294
▁improve	-10.8299
▁workout	-10.8302
▁nights	-10.8308
pped	-10.8329
ail	-10.8339
▁pit	-10.8359
:	-10.8361
▁illness	-10.8364
▁se	-10.8366
▁nurse	-10.8373
▁condition	-10.8376
▁electric	-10.8388
▁slowly	-10.8389
▁review	-10.84
▁ruine	-10.8401
▁hid	-10.8406
▁provide	-10.8426
one	-10.8435
▁braves	-10.8442
▁dai	-10.8449
▁compare	-10.8453
▁la	-10.8458
▁burn	-10.8462
▁snow	-10.848
▁men	-10.8494
’	-10.8506
▁female	-10.851
▁laker	-10.851
▁gesture	-10.851
▁advantage	-10.8511
▁everybody	-10.8511
▁hurry	-10.8513
▁bark	-10.8517
▁budget	-10.8525
▁built	-10.8535
▁nuts	-10.8556
▁pepper	-10.856
▁yours	-10.8571
▁painting	-10.8595
▁smile	-10.8602
▁stairs	-10.8629
▁ear	-10.8643
responsible	-10.8652
▁auto	-10.8653
▁netflix	-10.866
▁nowadays	-10.866
▁madden	-10.8661
▁painful	-10.8662
1	-10.8687
▁presents	-10.8689
▁marry	-10.87
▁add	-10.87
▁camera	-10.8706
▁eggs	-10.8722
▁severe	-10.8736
▁suit	-10.8737
▁invest	-10.8799
▁$1	-10.8802
▁mental	-10.8808
▁require	-10.881
▁previous	-10.8811
▁buffet	-10.8812
▁management	-10.8813
▁huh	-10.8814
▁overcome	-10.8821
▁react	-10.8851
ard	-10.8857
▁diagnos	-10.8868
▁file	-10.8872
▁cu	-10.8904
▁overall	-10.8922
▁ca	-10.8923
▁plays	-10.8928
▁load	-10.8938
accomplished	-10.895
▁mechanic	-10.8965
▁pressure	-10.8965
▁california	-10.8965
▁vase	-10.8965
▁taxes	-10.8969
▁expectations	-10.8969
oked	-10.8969
▁warning	-10.897
▁dry	-10.8975
▁skat	-10.8988
▁action	-10.8988
ship	-10.8992
▁slippe	-10.9004
▁irritat	-10.9008
▁punch	-10.9012
▁beard	-10.9016
verage	-10.902
▁income	-10.9026
▁release	-10.9027
▁frustrat	-10.9029
▁sc	-10.903
▁21	-10.904
▁env	-10.9044
▁inspir	-10.9063
side	-10.9068
▁bump	-10.9074
▁drug	-10.9117
▁fortunate	-10.9121
▁precious	-10.9121
▁habit	-10.9124
▁silly	-10.9125
▁heavy	-10.9131
▁flag	-10.9131
▁breed	-10.9132
▁eager	-10.9133
▁rich	-10.9137
▁rewarding	-10.9153
se	-10.9154
▁usual	-10.9154
▁donut	-10.9159
▁understanding	-10.9164
board	-10.9176
▁begin	-10.9177
▁protect	-10.9204
▁hunt	-10.9215
--	-10.9245
▁airplane	-10.928
▁excellent	-10.9281
▁unknown	-10.9282
▁writ	-10.9296
▁common	-10.9303
▁horse	-10.9336
▁plate	-10.9343
▁sport	-10.9344
▁understandable	-10.9348
labor	-10.9364
▁na	-10.9367
▁pulle	-10.9382
▁heading	-10.9396
▁dear	-10.9402
▁collect	-10.9403
▁someday	-10.9418
▁bucks	-10.9428
▁hole	-10.9431
▁itself	-10.9432
▁challenge	-10.9434
▁purpose	-10.9441
▁suffer	-10.9441
▁abuse	-10.9443
▁danc	-10.9445
▁judge	-10.9449
▁yuck	-10.9454
▁engineer	-10.946
▁hire	-10.9473
▁album	-10.9493
fish	-10.9508
▁pop	-10.9512
▁smoke	-10.9522
▁chase	-10.9552
▁classic	-10.9563
▁radi	-10.957
aring	-10.9574
tion	-10.9587
▁ocean	-10.9605
▁channel	-10.9605
▁pocket	-10.9605
▁medicine	-10.9605
▁happiness	-10.9606
▁france	-10.9608
▁potty	-10.961
▁wheel	-10.961
▁register	-10.9611
no	-10.9612
▁depress	-10.9619
tten	-10.9645
▁babysit	-10.9647
▁art	-10.9672
▁fanc	-10.9696
▁livi	-10.9699
ch	-10.9713
▁yo	-10.9725
▁survive	-10.9744
▁foods	-10.9764
▁fond	-10.977
▁europe	-10.9772
▁marathon	-10.9772
▁adorable	-10.9772
▁underwear	-10.9772
▁obviously	-10.9775
▁center	-10.9775
uring	-10.9777
walk	-10.9778
▁golf	-10.9779
▁qualified	-10.9785
▁shooting	-10.98
▁cord	-10.9819
son	-10.9826
um	-10.9843
▁truth	-10.9845
▁talented	-10.9855
▁cart	-10.9878
▁multipl	-10.9883
▁duck	-10.9886
▁destroy	-10.9895
▁remain	-10.9896
▁tripp	-10.9898
▁hug	-10.9917
▁chang	-10.9927
▁fried	-10.9929
ge	-10.9931
▁december	-10.9941
▁direct	-10.9942
▁hype	-10.9946
▁nature	-10.9948
▁hiking	-10.9951
▁uber	-10.9954
▁mid	-10.9955
▁treatment	-10.9955
▁skin	-10.9957
▁80	-10.9961
▁certificat	-10.9965
▁sadly	-10.9971
▁snakes	-10.9983
▁siblings	-10.9993
▁officer	-11
▁sucked	-11.0015
▁excuse	-11.0021
▁60	-11.0036
ew	-11.0036
▁attracti	-11.0051
▁shy	-11.0061
ist	-11.0075
▁clos	-11.0078
▁welcome	-11.0088
▁pleas	-11.0098
▁fries	-11.0104
▁ju	-11.0105
necklace	-11.0112
▁salad	-11.0115
▁inconsiderate	-11.0116
▁clown	-11.0116
▁restroom	-11.0116
▁highschool	-11.012
▁blanket	-11.0122
▁original	-11.0123
ps	-11.0141
▁uneas	-11.0148
▁isnt	-11.0162
▁forgive	-11.0183
▁ge	-11.0193
▁force	-11.0196
▁unit	-11.0198
▁shocking	-11.0206
▁tin	-11.0214
ember	-11.0221
▁develop	-11.0224
▁settle	-11.0252
▁smok	-11.0275
▁thousand	-11.0289
▁colleague	-11.0289
▁parcel	-11.0289
▁unhappy	-11.0292
red	-11.0292
▁response	-11.0296
hey	-11.0299
▁shark	-11.0309
▁chair	-11.031
▁pan	-11.0313
▁organized	-11.0314
▁junk	-11.0325
▁county	-11.0333
▁gott	-11.0334
selves	-11.034
▁tight	-11.0345
▁reasons	-11.0369
▁mountains	-11.0394
nual	-11.0399
8	-11.0399
▁cameras	-11.0419
▁cop	-11.042
▁tenn	-11.0423
▁affect	-11.0424
▁repeat	-11.0428
▁fe	-11.0455
▁mexican	-11.0468
▁spanish	-11.0468
▁disease	-11.0468
▁generation	-11.0475
▁lord	-11.0482
▁tea	-11.0482
least	-11.0484
▁rides	-11.049
co	-11.0507
ado	-11.0525
ning	-11.0531
▁soul	-11.0542
▁creep	-11.0544
▁shift	-11.0546
▁zoo	-11.0559
▁stores	-11.0567
▁brown	-11.0568
▁learne	-11.0574
▁po	-11.0579
▁phones	-11.0595
▁bomb	-11.0618
ne	-11.0624
▁dirt	-11.0637
▁strength	-11.0644
▁voice	-11.0649
▁junior	-11.0649
▁effect	-11.065
▁allergic	-11.065
▁overwhelming	-11.065
▁poison	-11.065
▁mouse	-11.0652
▁hobby	-11.0654
▁trustworthy	-11.0675
ant	-11.0709
▁familiar	-11.0729
▁wi	-11.0736
.	-11.0738
▁green	-11.074
▁grill	-11.0765
▁ski	-11.0783
▁jack	-11.0803
ramen	-11.0804
▁mold	-11.0808
▁twin	-11.0816
▁tall	-11.0817
▁wor	-11.0827
▁select	-11.0834
▁society	-11.0834
▁tuesday	-11.0834
▁headache	-11.0836
▁bath	-11.0837
▁courage	-11.084
▁throat	-11.0842
▁propose	-11.0845
▁simpl	-11.0846
▁heal	-11.0847
▁tax	-11.085
im	-11.0854
▁surprising	-11.0862
▁sea	-11.0862
▁rule	-11.0865
▁bat	-11.0898
▁mountain	-11.0912
▁bell	-11.0917
▁weekends	-11.0922
fc	-11.0925
▁related	-11.0929
itting	-11.093
ped	-11.0942
▁aggravat	-11.0947
▁blessing	-11.0959
▁ze	-11.0968
▁litter	-11.0986
▁bond	-11.0991
▁apologize	-11.0993
ring	-11.0994
▁workers	-11.1
▁washing	-11.1009
▁prices	-11.1009
▁knife	-11.1023
▁japan	-11.1023
▁tesla	-11.1023
▁episode	-11.1023
▁complex	-11.1023
▁retirement	-11.1024
▁granted	-11.1026
▁role	-11.1033
▁lessons	-11.1037
▁split	-11.1046
five	-11.1048
▁coach	-11.106
ience	-11.1062
▁abilities	-11.1064
▁includ	-11.1068
▁fr	-11.1071
ad	-11.1092
▁husk	-11.1093
▁rollercoaster	-11.1105
▁employer	-11.1109
bowl	-11.1122
▁replaced	-11.1124
▁cow	-11.1138
▁path	-11.1141
▁battle	-11.1149
▁wracking	-11.1178
▁19	-11.1182
▁sky	-11.1186
sure	-11.1199
▁belt	-11.1202
▁delay	-11.1207
▁exact	-11.1208
▁succeed	-11.1216
▁supermarket	-11.1216
▁savings	-11.1224
0	-11.1235
▁mac	-11.1243
▁thoughtful	-11.1245
▁ta	-11.1248
▁chip	-11.1256
▁donate	-11.1269
▁17	-11.1271
▁celebrat	-11.1281
▁sta	-11.1283
▁edge	-11.1295
▁du	-11.1295
▁sa	-11.1303
▁addict	-11.1303
▁sp	-11.1304
|	-11.1316
▁bee	-11.1328
▁terribl	-11.1334
▁numbers	-11.1372
lb	-11.1375
▁sub	-11.138
▁cared	-11.1387
▁mil	-11.1387
▁elementary	-11.1412
back	-11.1413
▁cope	-11.1416
▁professor	-11.1417
▁scold	-11.1418
▁national	-11.1418
▁classmate	-11.1419
▁chill	-11.1421
▁100%	-11.1423
▁responsibility	-11.1424
▁sex	-11.1427
▁frequent	-11.1433
▁batter	-11.1434
▁finances	-11.145
▁athletic	-11.1503
▁main	-11.1513
▁limit	-11.1514
▁characters	-11.152
▁exercis	-11.1521
▁cav	-11.1523
0%	-11.1525
▁teen	-11.1531
▁ti	-11.1538
▁uni	-11.154
▁soda	-11.1543
▁sooner	-11.1544
▁non	-11.1565
▁ignor	-11.1575
▁diagnose	-11.1593
z	-11.1593
▁trans	-11.1603
▁favor	-11.161
▁2018	-11.1611
▁october	-11.1611
▁opinion	-11.1611
▁haircut	-11.1612
▁grandpa	-11.1612
▁anybody	-11.1613
▁achievement	-11.1613
▁binge	-11.1616
▁renew	-11.1616
▁product	-11.1622
▁clue	-11.1625
ru	-11.1626
itary	-11.1631
▁sever	-11.1636
▁round	-11.164
▁ton	-11.1648
▁dut	-11.1653
▁500	-11.1654
▁fill	-11.1657
▁chef	-11.1665
▁hill	-11.1669
▁corn	-11.1689
blew	-11.169
made	-11.1691
▁character	-11.1704
v	-11.1718
▁lack	-11.1719
▁betray	-11.1729
▁fights	-11.1733
▁witness	-11.1739
of	-11.175
▁boxe	-11.1752
▁harm	-11.1754
▁debi	-11.1772
where	-11.1772
ible	-11.1776
▁spare	-11.1778
▁$10	-11.1815
▁nostalgi	-11.1815
▁august	-11.1815
▁private	-11.1815
▁hilarious	-11.1816
▁available	-11.1816
▁install	-11.1825
▁rabbit	-11.1826
▁necessar	-11.1827
▁attached	-11.1838
ma	-11.1839
▁gig	-11.1844
▁bang	-11.185
▁farm	-11.1861
▁motivated	-11.1864
▁chew	-11.1875
▁sooo	-11.1875
▁rip	-11.1876
ely	-11.1884
▁22	-11.1895
▁laundr	-11.1901
▁reminisce	-11.1919
▁commit	-11.1925
▁screw	-11.1933
▁yum	-11.1936
▁election	-11.1937
▁ill	-11.1938
▁chain	-11.1942
▁wo	-11.1955
▁sight	-11.1968
▁wishing	-11.1972
▁pile	-11.1986
laying	-11.2007
▁par	-11.2007
▁cousins	-11.2013
▁lend	-11.2015
▁jam	-11.2019
year	-11.2021
▁economy	-11.2024
▁television	-11.2024
▁tradition	-11.2025
ather	-11.2025
▁demand	-11.2027
▁pink	-11.2027
▁fruit	-11.2028
▁headphone	-11.2028
▁expired	-11.203
▁embarassed	-11.2031
▁version	-11.2031
ay	-11.2056
▁bench	-11.2058
▁monsters	-11.2073
▁convince	-11.2098
▁rear	-11.2098
▁arrest	-11.2101
▁colors	-11.2119
▁min	-11.2135
▁tour	-11.2137
▁compassion	-11.2162
▁killing	-11.2165
ow	-11.2167
▁flu	-11.2167
▁await	-11.2183
▁matters	-11.2196
▁wash	-11.2218
▁semi	-11.2218
dying	-11.2226
▁mexico	-11.2236
▁routine	-11.2236
▁distraught	-11.2237
▁curious	-11.2238
▁cowboys	-11.2238
▁stubb	-11.2239
▁keto	-11.2241
▁san	-11.2241
▁unfair	-11.2245
▁brain	-11.2247
broad	-11.2256
▁crapp	-11.2263
led	-11.2264
▁rate	-11.2268
▁onions	-11.2269
▁gam	-11.2275
▁design	-11.2279
▁happi	-11.2285
▁apologized	-11.2286
lies	-11.2293
fortunately	-11.2314
▁slide	-11.2323
ily	-11.2338
▁injur	-11.2341
▁bo	-11.2351
▁mission	-11.2366
ical	-11.2366
▁worrie	-11.2378
▁pupp	-11.2381
▁wind	-11.2385
▁2000	-11.2395
▁bothers	-11.2414
▁escape	-11.2414
▁wh	-11.2424
▁dealer	-11.2426
she	-11.2443
▁treats	-11.2447
▁journ	-11.2447
et	-11.2451
▁actual	-11.2452
▁recital	-11.2454
▁mortgage	-11.2454
▁language	-11.2454
▁influence	-11.2454
▁wednesday	-11.2454
▁candidate	-11.2454
▁decade	-11.2454
▁festival	-11.2454
▁stroke	-11.2455
▁dumpster	-11.2455
▁korean	-11.2461
▁medication	-11.2462
▁grabb	-11.2466
▁lung	-11.2471
▁meaning	-11.2471
▁muscle	-11.2472
▁puked	-11.2474
acting	-11.2482
▁lies	-11.2496
▁determin	-11.2514
▁pie	-11.2529
▁ship	-11.254
unny	-11.2549
▁material	-11.2569
cy	-11.2584
▁gear	-11.2588
▁prank	-11.2596
▁spook	-11.2607
▁watche	-11.261
▁comic	-11.2617
▁opposi	-11.2622
affle	-11.263
▁relieve	-11.2635
▁reward	-11.2641
▁reminde	-11.2649
▁guessing	-11.2655
▁nest	-11.2667
▁recommend	-11.2671
▁bmw	-11.2675
▁errand	-11.2676
▁intense	-11.2677
▁express	-11.2682
▁yay	-11.2688
▁claim	-11.2689
▁choose	-11.2693
▁balance	-11.2699
▁fool	-11.2713
▁shorts	-11.2732
▁shatter	-11.2737
▁treasure	-11.2744
dom	-11.2747
▁lego	-11.2764
▁root	-11.2764
▁male	-11.2769
▁$200	-11.278
▁hall	-11.2793
▁manag	-11.2805
ah	-11.2814
▁participate	-11.282
mune	-11.2824
▁houses	-11.283
▁$500	-11.2841
▁croatia	-11.2853
▁ch	-11.2868
lew	-11.287
&	-11.29
▁retail	-11.2903
▁championship	-11.2904
▁coast	-11.2904
▁backpack	-11.2907
▁jacket	-11.2907
▁fo	-11.2908
▁1000	-11.2908
▁reality	-11.2909
▁drown	-11.291
▁slammed	-11.2911
▁slight	-11.2914
▁leash	-11.2937
▁benefits	-11.2937
▁windows	-11.2947
▁official	-11.2948
▁roommates	-11.2949
ified	-11.2951
▁personally	-11.2969
house	-11.2981
▁charg	-11.2987
▁pic	-11.3004
▁model	-11.3036
ago	-11.305
▁fake	-11.305
istic	-11.3073
▁liv	-11.3085
▁sneak	-11.3089
▁reviews	-11.3089
▁shoulder	-11.3093
peed	-11.3105
▁practic	-11.3135
▁geez	-11.3135
▁vegetable	-11.3136
▁significant	-11.3142
▁musician	-11.3149
▁fal	-11.315
▁payday	-11.3163
▁hung	-11.3166
▁possibl	-11.3171
▁army	-11.3186
▁faster	-11.3189
was	-11.321
▁writt	-11.3219
▁ove	-11.3222
▁moon	-11.3226
▁bro	-11.323
▁sand	-11.3256
▁sauce	-11.3261
▁annoy	-11.3261
▁shar	-11.3267
▁ease	-11.3275
▁ole	-11.3292
ley	-11.3297
▁request	-11.3329
▁injure	-11.3331
▁brave	-11.3332
▁olive	-11.3352
▁polic	-11.3355
▁leaves	-11.336
rift	-11.3371
▁ne	-11.3373
▁dmv	-11.3373
▁idiot	-11.3374
▁popular	-11.3374
▁ecstatic	-11.3374
▁eggplant	-11.3374
▁loneliness	-11.3374
▁tragic	-11.3374
▁alternative	-11.3374
▁craving	-11.3375
▁squid	-11.3375
▁paperwork	-11.3376
▁reaction	-11.3378
you	-11.3379
▁piano	-11.3388
▁patience	-11.3392
▁distracted	-11.3392
▁belongings	-11.3393
▁counter	-11.3393
posit	-11.3404
▁deer	-11.3405
▁boil	-11.3405
ro	-11.3412
▁supporting	-11.3412
▁rob	-11.3413
▁belong	-11.3414
rage	-11.3419
▁recognize	-11.3422
aving	-11.3427
▁flipp	-11.3435
either	-11.3438
▁lab	-11.3448
▁panic	-11.3452
▁names	-11.3455
ut	-11.3463
▁pant	-11.3469
▁stain	-11.3471
onna	-11.3475
▁hike	-11.3487
▁brownie	-11.349
▁cage	-11.3499
ssed	-11.3508
▁outfit	-11.3517
rked	-11.3531
▁nav	-11.3538
▁fb	-11.3543
▁trap	-11.3547
mber	-11.3549
donald	-11.355
▁access	-11.3575
▁engine	-11.3603
▁tattoo	-11.3618
▁discount	-11.3618
▁motivation	-11.3619
▁addiction	-11.3621
▁kitty	-11.3621
▁government	-11.3622
▁fee	-11.3627
▁chemistry	-11.363
▁charger	-11.3642
▁view	-11.3648
▁chest	-11.3649
▁dem	-11.3657
▁valu	-11.3659
mer	-11.3669
▁expenses	-11.367
▁torn	-11.3705
▁rac	-11.3711
▁messy	-11.373
▁bully	-11.3731
watch	-11.3754
▁35	-11.3755
▁lower	-11.3773
▁wound	-11.379
▁gut	-11.381
seas	-11.3817
▁object	-11.382
nce	-11.3822
▁mosquito	-11.3864
▁poo	-11.3865
hold	-11.3867
▁sushi	-11.3867
▁bottom	-11.3867
▁flavor	-11.3868
▁activities	-11.3868
▁maintain	-11.3868
▁midnight	-11.3868
▁instructor	-11.3868
▁heartbreak	-11.3869
▁subway	-11.3869
▁admire	-11.387
rew	-11.387
▁location	-11.3873
▁darn	-11.3877
▁political	-11.3881
▁mentally	-11.3883
▁protective	-11.3896
▁committe	-11.3898
▁frightening	-11.39
▁stor	-11.3902
▁retired	-11.3903
▁fur	-11.3914
▁oops	-11.3917
▁hubb	-11.3947
▁owe	-11.3953
▁handl	-11.3956
▁starve	-11.3964
▁whats	-11.3972
▁range	-11.3982
entia	-11.3985
▁boost	-11.3985
ton	-11.4001
ving	-11.4004
▁encourage	-11.4008
om	-11.4016
▁putt	-11.4035
▁trauma	-11.4037
▁exist	-11.4042
▁outcome	-11.4051
▁famil	-11.4052
%	-11.4057
▁north	-11.4058
▁introduce	-11.4058
go	-11.4063
▁chore	-11.4069
▁scar	-11.4069
▁tail	-11.4072
gan	-11.4078
▁purchas	-11.4093
standing	-11.4096
▁skipp	-11.4096
counting	-11.4115
▁guilt	-11.4117
>	-11.4121
▁hamster	-11.4124
▁potential	-11.4124
▁environment	-11.4124
▁bittersweet	-11.4124
▁reservation	-11.4125
▁sketchy	-11.4126
▁safety	-11.4128
▁gambling	-11.413
ears	-11.4134
▁understood	-11.4145
▁baker	-11.4148
▁vegan	-11.4148
▁careless	-11.4152
▁happend	-11.4177
so	-11.418
▁tick	-11.418
▁theater	-11.4181
▁create	-11.4186
▁safely	-11.4195
ept	-11.4196
▁reli	-11.4201
▁areas	-11.4211
▁usa	-11.4224
▁papers	-11.4226
▁fa	-11.4249
▁$5	-11.4258
▁din	-11.4269
▁option	-11.4291
op	-11.4301
▁prior	-11.4312
▁skip	-11.4317
ling	-11.4318
end	-11.4329
▁tim	-11.4332
▁potatoe	-11.4346
▁con	-11.435
▁experiences	-11.4352
▁horribl	-11.4366
▁skunk	-11.4387
▁honda	-11.4387
▁ferrari	-11.4387
▁foreign	-11.4387
▁seafood	-11.4387
▁internship	-11.4387
▁innocen	-11.4387
▁thunderstorm	-11.4387
▁opportunities	-11.4387
▁example	-11.4388
▁charity	-11.4388
▁neice	-11.4393
▁thoughts	-11.4396
▁standard	-11.4397
▁mainly	-11.4398
▁bull	-11.4401
▁considerate	-11.4402
▁typical	-11.441
▁doors	-11.4417
▁adventure	-11.4418
▁steam	-11.4422
▁slipp	-11.4425
▁slice	-11.4427
▁eachother	-11.4428
▁chances	-11.4436
▁rice	-11.4448
▁asap	-11.4449
▁listened	-11.4451
▁continues	-11.4455
▁active	-11.4467
▁hu	-11.4472
ri	-11.4485
▁firm	-11.4493
▁iphone	-11.4532
▁spirit	-11.4538
▁scrap	-11.4542
ur	-11.4548
▁cookie	-11.4549
▁pup	-11.4556
▁reject	-11.4571
▁anger	-11.4582
▁stink	-11.4606
▁24	-11.4608
▁mo	-11.4615
ome	-11.4621
▁accidents	-11.4631
il	-11.465
ie	-11.4655
▁hesitant	-11.4657
▁impossible	-11.4658
▁aggressive	-11.4658
▁dislike	-11.4659
▁impression	-11.466
rink	-11.4662
▁babysitter	-11.4663
▁tasty	-11.4665
mission	-11.4669
employe	-11.4673
▁sadden	-11.4675
▁reschedule	-11.4678
▁depressi	-11.4684
▁aliens	-11.4696
▁independent	-11.4697
▁gr	-11.4704
▁isolated	-11.4704
▁cap	-11.4705
▁ooh	-11.4719
▁tol	-11.4719
▁fli	-11.472
▁reliev	-11.4734
▁tools	-11.4745
▁45	-11.4756
▁kit	-11.476
▁lap	-11.4796
▁cleaner	-11.4817
▁wasp	-11.4835
law	-11.4843
▁flip	-11.4858
▁improv	-11.488
▁reflect	-11.4885
real	-11.4887
▁meals	-11.4889
▁shoot	-11.4895
▁ants	-11.4909
▁grab	-11.4922
▁ar	-11.4932
▁temper	-11.4932
▁target	-11.4935
▁quarter	-11.4935
▁pajama	-11.4935
▁umbrella	-11.4935
▁essential	-11.4935
▁technology	-11.4935
▁assignment	-11.4936
▁chic	-11.4936
▁countries	-11.4936
ware	-11.4937
▁burst	-11.4938
responsibilities	-11.4938
▁personality	-11.4938
▁70	-11.4938
▁adjust	-11.4939
unting	-11.4945
▁evil	-11.4948
our	-11.4951
ese	-11.4957
▁kidding	-11.4959
▁starving	-11.4964
▁folks	-11.4965
▁homeschool	-11.4968
▁engl	-11.4973
▁kiddo	-11.4982
▁drawing	-11.4983
▁term	-11.4989
▁parks	-11.4995
▁addition	-11.5008
▁crashe	-11.5014
▁solve	-11.5029
▁ev	-11.5078
▁guest	-11.5079
▁disaster	-11.5103
▁su	-11.512
▁increase	-11.5122
▁tu	-11.5126
▁leak	-11.5127
ds	-11.5145
▁document	-11.5154
ign	-11.5157
ered	-11.5173
cks	-11.5188
▁teenage	-11.5193
▁x	-11.5194
place	-11.5197
▁chick	-11.5198
▁turk	-11.52
▁needles	-11.5214
▁pen	-11.5214
▁contract	-11.5216
▁crack	-11.5218
▁quiz	-11.522
▁spaghetti	-11.5221
▁hassle	-11.5222
▁beforehand	-11.5222
▁unemploy	-11.5222
▁detail	-11.5223
▁newborn	-11.5224
▁celebration	-11.5227
▁smoothly	-11.523
▁embarassing	-11.523
▁tons	-11.5233
▁clothing	-11.5244
▁desperate	-11.5253
▁inter	-11.5256
raged	-11.5264
▁comment	-11.5277
▁rewarded	-11.5278
▁rais	-11.5283
ine	-11.5291
▁scien	-11.5291
hen	-11.5295
▁rott	-11.5298
▁healing	-11.5305
▁prevent	-11.5309
▁refus	-11.5322
▁ankle	-11.5322
▁hood	-11.5334
▁setting	-11.5341
▁tie	-11.5352
▁beating	-11.5368
ver	-11.537
▁freshm	-11.5372
▁dedicat	-11.5378
ter	-11.538
▁argue	-11.5381
▁rollercoasters	-11.5389
▁website	-11.54
▁attempt	-11.5401
▁neighbour	-11.5401
▁scene	-11.5404
▁afterward	-11.5408
not	-11.5419
6	-11.5432
▁troubles	-11.5439
be	-11.5444
▁smooth	-11.5444
▁jet	-11.5465
▁fam	-11.5472
*	-11.5475
rrupt	-11.5478
▁sweating	-11.5488
ac	-11.549
ure	-11.5493
▁dads	-11.5499
▁draw	-11.5504
pad	-11.5504
▁porsche	-11.5515
▁raccoon	-11.5515
▁gunshot	-11.5515
▁industry	-11.5515
▁hectic	-11.5515
▁kayak	-11.5515
▁disappear	-11.5515
▁competitive	-11.5515
▁tomato	-11.5515
▁extension	-11.5515
▁generous	-11.5516
▁clearance	-11.5517
▁vibe	-11.5518
▁heaven	-11.552
▁console	-11.5525
▁nfl	-11.5525
▁info	-11.5532
▁cheaper	-11.5537
3	-11.5542
▁possibilit	-11.5542
alcon	-11.5551
▁bust	-11.5554
▁juice	-11.5556
▁ego	-11.5567
▁bands	-11.5568
pot	-11.5583
▁bosses	-11.5588
chines	-11.561
ke	-11.5618
▁schools	-11.5626
▁drain	-11.5633
▁murder	-11.5643
▁chatt	-11.5664
▁rolls	-11.5664
▁reminisc	-11.5666
▁frighten	-11.5682
▁resolve	-11.5697
ailed	-11.5709
▁thick	-11.5716
▁passion	-11.5728
▁lotto	-11.5759
▁solo	-11.5773
▁stressing	-11.5774
▁bah	-11.5778
ns	-11.578
▁retire	-11.5784
▁flow	-11.5803
▁pumpkin	-11.5818
▁costume	-11.5818
▁evaluation	-11.5818
▁neuro	-11.5819
▁irresponsible	-11.5819
▁canada	-11.582
▁cities	-11.582
▁gifted	-11.5828
▁deck	-11.583
▁glasses	-11.5839
▁base	-11.584
▁drawer	-11.5841
▁rose	-11.5844
ian	-11.5845
bucks	-11.5853
mower	-11.5853
▁patch	-11.5858
▁bicycl	-11.5868
▁yearbook	-11.5869
▁suprise	-11.5874
▁hahah	-11.5906
▁frustrate	-11.591
▁dorm	-11.5914
▁butter	-11.5915
customer	-11.5924
ck	-11.5944
got	-11.5955
lebr	-11.5956
▁fle	-11.5967
▁pitch	-11.597
▁texted	-11.5997
icted	-11.6002
een	-11.6002
do	-11.6006
▁thunder	-11.6015
▁willing	-11.6016
▁biolog	-11.6016
rench	-11.6033
▁roomate	-11.6035
▁beca	-11.604
▁bout	-11.6043
▁medic	-11.6053
▁honk	-11.6072
▁decorat	-11.6102
▁fulfill	-11.6104
▁gather	-11.6106
▁hmm	-11.6106
▁boyfriends	-11.6106
▁tips	-11.6107
ipped	-11.6109
▁picnic	-11.613
▁dessert	-11.613
▁economic	-11.613
▁pancreati	-11.613
▁ceiling	-11.613
▁zipper	-11.613
▁ingredient	-11.613
▁sharp	-11.6135
▁aisle	-11.6137
▁rotte	-11.6137
▁breast	-11.6137
▁handed	-11.6139
▁branch	-11.614
▁confess	-11.6145
▁ahh	-11.6146
▁actor	-11.6158
▁injury	-11.6161
▁prove	-11.6174
▁toy	-11.6181
▁owl	-11.6199
▁appetit	-11.6202
▁psycholog	-11.6207
▁repeated	-11.6207
▁copy	-11.6209
▁passionate	-11.621
▁slapp	-11.6216
▁em	-11.6228
▁univers	-11.6241
▁instantly	-11.6246
▁teams	-11.6246
▁google	-11.626
▁complet	-11.6261
▁gum	-11.6274
ned	-11.6302
▁wave	-11.6304
▁deserv	-11.6304
▁transferr	-11.6305
bs	-11.6318
▁miracle	-11.633
ium	-11.6336
▁snack	-11.6342
book	-11.6347
truck	-11.6347
▁feb	-11.6349
▁magic	-11.6352
▁bas	-11.6372
situation	-11.6375
ced	-11.6401
▁audi	-11.6409
▁asia	-11.6418
▁reconnect	-11.642
▁prison	-11.6431
▁gorgeous	-11.6453
▁bunnies	-11.6453
▁cigarette	-11.6453
▁perspective	-11.6453
▁uncertain	-11.6453
▁transportation	-11.6453
▁artist	-11.6454
▁ohhh	-11.6455
▁impact	-11.6455
▁ballet	-11.6457
▁trailer	-11.6457
▁nightlight	-11.6462
play	-11.6467
ition	-11.6468
▁flash	-11.6469
▁confused	-11.6473
hostel	-11.6475
▁brakes	-11.6477
▁declined	-11.6478
rma	-11.6479
▁overnight	-11.6481
▁serving	-11.6512
over	-11.6513
don	-11.6535
amas	-11.6538
▁sundays	-11.6539
▁interrupt	-11.6548
ying	-11.6554
▁speaker	-11.6566
▁stable	-11.6567
▁brush	-11.6577
▁options	-11.6583
▁curse	-11.6587
▁melt	-11.6591
▁guide	-11.6592
school	-11.6603
elated	-11.6609
some	-11.6637
▁shifts	-11.6654
▁cur	-11.6656
gging	-11.6659
own	-11.6671
adill	-11.6679
▁humble	-11.6685
▁explode	-11.6688
▁walls	-11.6689
▁gal	-11.6693
▁extend	-11.6698
▁heavi	-11.6711
ex	-11.6713
▁scor	-11.6718
emotion	-11.6758
▁instrument	-11.6769
▁tra	-11.6774
▁forth	-11.6777
▁glut	-11.6785
▁rehab	-11.6786
▁cruel	-11.6786
▁affair	-11.6786
▁romantic	-11.6786
▁craigslist	-11.6786
▁excitement	-11.6786
rove	-11.6787
▁selfish	-11.6788
▁fortune	-11.6788
▁distant	-11.6789
▁handful	-11.6789
▁lemon	-11.6789
▁whil	-11.6791
▁specifically	-11.6791
▁unbelievable	-11.6792
▁bullet	-11.6796
▁shad	-11.6798
▁polite	-11.6798
bru	-11.6801
▁productive	-11.6805
▁mass	-11.6809
▁entertain	-11.6809
▁gra	-11.6814
rd	-11.6815
▁gossip	-11.6817
▁ultimate	-11.6834
wracking	-11.6852
appropriate	-11.6856
▁discipline	-11.6859
▁angel	-11.6859
▁300	-11.6867
▁handy	-11.6885
▁repay	-11.6885
down	-11.6888
section	-11.6892
▁frightene	-11.6896
▁companion	-11.6905
▁frid	-11.6905
▁hah	-11.6908
that	-11.6923
▁0	-11.6933
▁totall	-11.6935
▁cam	-11.6939
▁choke	-11.6944
▁tr	-11.6957
dy	-11.6966
▁pc	-11.6968
▁tool	-11.697
▁deals	-11.6978
▁discuss	-11.6986
▁propos	-11.7014
▁pi	-11.702
▁shadow	-11.7028
▁cloud	-11.7031
▁initial	-11.7037
▁accuse	-11.7044
tual	-11.7047
▁panick	-11.7061
▁tha	-11.7069
▁reminder	-11.707
ice	-11.7084
▁drag	-11.7089
▁east	-11.711
▁rep	-11.7121
ictori	-11.713
▁iguana	-11.713
▁democra	-11.7131
▁popcorn	-11.7131
▁neglect	-11.7131
▁conference	-11.7131
▁devestated	-11.7131
▁noodle	-11.7131
▁sweetheart	-11.7131
▁organization	-11.7132
▁strawberr	-11.7134
▁deadline	-11.7135
▁session	-11.7136
▁mug	-11.7139
▁zone	-11.7142
▁robber	-11.7143
▁com	-11.7145
▁neck	-11.7147
▁brutal	-11.7165
iving	-11.7175
▁insist	-11.7177
▁frog	-11.7178
▁beef	-11.7183
▁sticky	-11.7184
9	-11.7185
▁hat	-11.7186
▁cracked	-11.7186
otten	-11.7194
▁shortly	-11.7199
▁instruction	-11.7209
▁devastating	-11.7213
▁loudly	-11.7217
▁dip	-11.722
ill	-11.7221
▁fund	-11.7223
▁roach	-11.724
que	-11.726
ival	-11.7261
agent	-11.7266
▁sitt	-11.7277
▁blowing	-11.7279
▁staff	-11.729
are	-11.729
▁clock	-11.729
▁button	-11.73
▁sn	-11.73
agna	-11.7305
ca	-11.7318
▁lik	-11.7331
light	-11.7336
▁blessings	-11.734
ot	-11.7341
can	-11.7358
▁respectful	-11.738
▁scratching	-11.74
▁diabet	-11.7404
▁slap	-11.7414
▁awake	-11.7418
▁allerg	-11.7424
let	-11.7434
▁salt	-11.744
▁punish	-11.7441
▁*	-11.7446
▁motivate	-11.7459
▁sep	-11.7478
hip	-11.7479
▁coyote	-11.7487
▁dallas	-11.7488
▁antique	-11.7488
▁ceremon	-11.7488
▁compliment	-11.7488
▁horrifying	-11.7488
▁swallow	-11.7488
▁lawyer	-11.7488
▁overcharge	-11.749
▁motor	-11.7491
▁suv	-11.7491
▁trophy	-11.7491
▁butterflie	-11.7496
▁disconnect	-11.7496
▁knowledge	-11.7497
▁increasing	-11.7497
▁yankees	-11.7499
▁jerks	-11.7506
▁exchange	-11.7506
prepared	-11.7508
▁pour	-11.7509
▁breeze	-11.751
▁removed	-11.7517
▁possum	-11.7525
▁mum	-11.7526
▁image	-11.7527
ious	-11.7538
▁abusi	-11.7541
▁compani	-11.7542
▁tires	-11.7542
▁egg	-11.7549
▁raw	-11.7554
ette	-11.7556
▁function	-11.7566
ties	-11.7573
▁bugg	-11.7583
▁supp	-11.7592
▁cabin	-11.7602
▁wide	-11.7604
ground	-11.7608
hole	-11.7613
▁passes	-11.7623
ized	-11.7635
▁swerve	-11.7639
▁pla	-11.7648
▁compete	-11.7654
▁wise	-11.7662
▁tank	-11.7663
▁ages	-11.7673
▁partie	-11.7678
laws	-11.7695
lf	-11.7697
▁creat	-11.7719
ol	-11.7726
▁phil	-11.7728
▁burden	-11.7732
▁thrill	-11.7741
▁sibling	-11.7746
▁buddi	-11.7757
▁teh	-11.7778
▁lame	-11.7784
▁whom	-11.7804
▁figur	-11.7806
cting	-11.7807
term	-11.7811
▁stu	-11.7817
cted	-11.7819
▁grind	-11.783
j	-11.7834
▁technical	-11.7836
▁clim	-11.7848
order	-11.7856
▁rec	-11.7858
▁mirror	-11.7858
▁stubborn	-11.7858
▁hamburger	-11.7858
▁refrigerat	-11.7858
▁plumber	-11.7858
▁foster	-11.7858
▁thorough	-11.7858
▁goodbye	-11.7858
▁destin	-11.7859
▁salary	-11.7859
▁cartoon	-11.786
▁solution	-11.786
▁investment	-11.7861
▁draft	-11.7861
▁replacement	-11.7862
works	-11.7862
▁horrified	-11.7865
▁household	-11.7868
▁chemical	-11.7878
▁assuming	-11.7882
takes	-11.7882
shed	-11.789
▁catfish	-11.7891
sh	-11.7898
ural	-11.7904
▁chin	-11.7907
▁breakup	-11.7914
▁singer	-11.7918
▁jumpe	-11.7926
▁jo	-11.7935
▁employ	-11.7942
▁outdoors	-11.7943
▁frame	-11.7951
▁shave	-11.7952
▁cha	-11.7967
▁famili	-11.7967
▁hop	-11.7974
▁checkout	-11.7984
▁$25	-11.7987
▁prayer	-11.7998
▁starv	-11.8005
▁mont	-11.8016
▁pr	-11.8019
ailing	-11.8019
▁mag	-11.8031
▁strangers	-11.8074
ank	-11.8083
▁harv	-11.8084
▁mate	-11.8106
vy	-11.8114
▁wolf	-11.812
thing	-11.8121
▁en	-11.8122
oh	-11.813
▁suggest	-11.813
▁hint	-11.8145
stood	-11.8149
▁bound	-11.8168
tuna	-11.8172
▁slip	-11.8173
▁inspire	-11.8183
▁giv	-11.8192
▁soooo	-11.8205
▁matche	-11.821
▁announce	-11.8215
▁korea	-11.8228
▁que	-11.8241
▁$400	-11.8242
▁arcade	-11.8242
▁banana	-11.8242
▁pharmac	-11.8242
▁squirrel	-11.8242
▁chihuahua	-11.8243
▁overwhelmed	-11.8243
▁cryptocurrenc	-11.8243
▁gallon	-11.8243
▁olympic	-11.8243
▁grumpy	-11.8243
▁intruder	-11.8243
▁failure	-11.8244
▁address	-11.8244
▁cafe	-11.8244
▁improvement	-11.8245
▁incident	-11.8248
▁interests	-11.8254
▁recall	-11.8259
▁bragg	-11.8266
▁punk	-11.8266
arriage	-11.8275
▁bucket	-11.8277
▁camper	-11.828
▁tempt	-11.8287
▁paw	-11.8289
▁buzz	-11.8296
▁trainer	-11.83
▁awoke	-11.8309
▁smells	-11.8321
jury	-11.8322
▁trial	-11.833
▁def	-11.834
protein	-11.8345
rystal	-11.8352
▁page	-11.8358
▁ticke	-11.837
owing	-11.8371
more	-11.8373
▁terms	-11.8379
▁nor	-11.8381
▁blesse	-11.839
▁wipe	-11.8407
▁ja	-11.8407
▁basi	-11.8409
▁lip	-11.8414
▁inch	-11.8424
▁committ	-11.8438
▁fac	-11.8451
going	-11.8455
▁snuggle	-11.8457
als	-11.8483
▁fu	-11.8485
▁misc	-11.8489
▁plates	-11.85
▁cockroach	-11.8503
▁web	-11.8506
▁disrespect	-11.8512
▁streets	-11.8515
▁ag	-11.8522
ft	-11.8529
▁nove	-11.8549
▁snap	-11.855
friend	-11.8551
▁scarie	-11.8556
▁vote	-11.8559
▁roomie	-11.8565
▁$300	-11.857
ating	-11.8582
solid	-11.8584
▁compet	-11.8593
vice	-11.8594
▁topping	-11.8604
▁presenting	-11.8618
▁command	-11.8629
▁ug	-11.8637
▁parrot	-11.8642
▁burrito	-11.8642
▁weapon	-11.8642
▁pineapple	-11.8642
▁lonesome	-11.8643
▁surreal	-11.8643
▁humid	-11.8643
▁milestone	-11.8644
▁inspection	-11.8644
▁preschool	-11.8644
▁racist	-11.8644
ory	-11.8645
▁counselor	-11.8645
▁communicate	-11.8647
▁phase	-11.8649
▁title	-11.8651
mma	-11.8655
▁bitter	-11.866
▁ladi	-11.8661
▁pump	-11.8663
▁commercial	-11.8664
▁culture	-11.8664
▁entitle	-11.8664
▁unlocked	-11.8667
kids	-11.867
▁statement	-11.8671
ibbe	-11.8672
▁pleasure	-11.8684
▁unpack	-11.8692
▁provider	-11.87
▁rope	-11.8702
▁boxing	-11.8703
ista	-11.8706
weight	-11.8711
▁abl	-11.8719
oooh	-11.8722
▁sparr	-11.8735
▁freeze	-11.8736
▁complicat	-11.8738
▁craft	-11.8745
▁pastor	-11.8748
care	-11.8751
nite	-11.8768
▁twent	-11.877
tory	-11.8783
▁stream	-11.8815
suit	-11.8818
▁argu	-11.8826
well	-11.8838
▁feedback	-11.8843
▁forest	-11.8848
▁scratche	-11.8854
▁secure	-11.8888
▁explore	-11.889
oon	-11.8914
ought	-11.8943
▁determine	-11.8944
ra	-11.8962
▁prep	-11.8967
▁bats	-11.8971
▁chi	-11.8979
▁apri	-11.8986
▁anyways	-11.899
▁coin	-11.8999
▁vari	-11.9015
▁sum	-11.9018
ial	-11.903
eek	-11.9031
ctions	-11.9033
▁include	-11.9039
▁cab	-11.904
▁behave	-11.9043
▁lice	-11.9048
▁harsh	-11.9058
▁nacho	-11.9058
▁tackle	-11.9059
▁scenario	-11.9059
▁uniform	-11.9059
▁evidence	-11.9059
▁brilliant	-11.9059
▁individual	-11.9059
▁unnecessar	-11.9059
▁bracelet	-11.9059
▁tech	-11.9059
▁equipment	-11.9059
▁doughnut	-11.906
▁healthier	-11.906
▁cinema	-11.9061
▁froze	-11.9062
▁hallway	-11.9063
▁suspect	-11.9063
▁circle	-11.9065
▁creative	-11.9066
▁mis	-11.9066
▁chunk	-11.9067
▁drew	-11.9069
ions	-11.907
▁mar	-11.9076
▁relive	-11.9079
▁challeng	-11.9079
▁juggle	-11.9082
▁karat	-11.9085
▁athlete	-11.9085
▁pipe	-11.9094
employ	-11.91
▁promises	-11.9115
▁horn	-11.9129
ama	-11.9131
▁metal	-11.9131
▁peak	-11.9143
▁sober	-11.9147
icle	-11.9153
▁slack	-11.9162
2	-11.9164
▁lon	-11.9164
▁sw	-11.9171
we	-11.9172
▁healed	-11.9177
▁div	-11.9185
▁upgrade	-11.9192
▁ro	-11.9201
paper	-11.9202
▁resent	-11.9207
ime	-11.9208
▁ye	-11.9214
▁blo	-11.9215
even	-11.9216
▁messag	-11.9236
free	-11.9248
nfront	-11.9255
▁remote	-11.9255
▁cough	-11.9256
▁slim	-11.9257
▁debts	-11.9264
pping	-11.9266
▁reunite	-11.9284
▁conc	-11.9291
▁bumpe	-11.9303
for	-11.9306
ished	-11.9319
ries	-11.9346
▁scam	-11.936
▁assure	-11.9362
▁bi	-11.9365
force	-11.9371
▁insecur	-11.9372
▁defend	-11.9372
list	-11.9396
ending	-11.9397
▁returns	-11.94
▁greet	-11.9415
▁route	-11.9419
▁bum	-11.9437
estate	-11.9437
▁seek	-11.9439
▁puke	-11.9466
lent	-11.9469
▁pac	-11.947
▁king	-11.9477
▁recogni	-11.9483
▁waiter	-11.9489
▁$40	-11.9492
▁spread	-11.9493
▁tutor	-11.9493
▁threaten	-11.9493
▁intuiti	-11.9493
▁casserole	-11.9494
▁snowboard	-11.9494
▁skinn	-11.9495
▁expans	-11.9495
▁unfaithful	-11.9496
▁genetic	-11.9496
▁infection	-11.9496
▁beaut	-11.9496
▁lifestyle	-11.9499
▁winner	-11.95
▁host	-11.9502
▁embarrased	-11.9503
▁roaches	-11.9503
▁spain	-11.9504
▁playoff	-11.9504
life	-11.9504
▁recommendation	-11.9504
▁taxi	-11.9509
▁creatures	-11.9512
▁crank	-11.9513
▁regard	-11.9513
▁honey	-11.952
▁confirm	-11.9521
▁photographs	-11.9522
▁flush	-11.9522
▁castle	-11.953
▁leap	-11.9533
▁danger	-11.9537
▁consistent	-11.9539
zed	-11.9543
▁carbs	-11.9546
▁behaved	-11.9559
▁mice	-11.9568
▁island	-11.9569
▁infuriating	-11.957
▁#	-11.9572
▁pu	-11.9572
▁click	-11.9579
▁400	-11.9585
▁colon	-11.9614
▁condo	-11.9616
▁separate	-11.9616
kill	-11.9618
cu	-11.9625
▁med	-11.9629
▁conditioning	-11.9635
lo	-11.9638
▁64	-11.9639
▁sake	-11.964
gator	-11.9642
▁constructi	-11.9644
▁performing	-11.9647
▁tense	-11.9651
▁boot	-11.9655
▁daddy	-11.9659
▁smelling	-11.9663
ches	-11.9668
▁elevat	-11.9678
mp	-11.968
▁jea	-11.9685
▁gu	-11.9687
▁strand	-11.9723
▁23	-11.9725
eans	-11.9728
▁studio	-11.9729
ia	-11.9736
safe	-11.9754
▁symp	-11.9761
▁cris	-11.9771
cons	-11.9789
os	-11.9789
5	-11.979
▁trade	-11.9808
▁crab	-11.9819
while	-11.9825
▁fees	-11.9833
▁operation	-11.9834
▁complicate	-11.9839
▁aware	-11.9846
washer	-11.987
orange	-11.9885
sed	-11.9891
▁gathering	-11.9891
▁thin	-11.9897
▁slam	-11.9898
▁malfunction	-11.9898
▁brit	-11.9919
▁crowds	-11.9919
ends	-11.9926
▁wrap	-11.9944
▁eww	-11.9945
▁diamond	-11.9946
▁museum	-11.9946
▁pitbull	-11.9946
▁enroll	-11.9946
▁lizard	-11.9946
▁karma	-11.9946
▁john	-11.9947
▁resist	-11.9947
▁portion	-11.9947
▁doorstep	-11.9948
▁christian	-11.9948
▁preseason	-11.9948
▁reception	-11.9948
▁australia	-11.9948
▁transition	-11.9949
▁religious	-11.9949
▁qualify	-11.995
▁communication	-11.995
▁proposal	-11.9951
▁profit	-11.9954
▁veggies	-11.9955
▁earring	-11.9956
▁consequences	-11.9957
▁coupon	-11.9958
▁owners	-11.9962
▁condolences	-11.9962
▁convenient	-11.9965
▁curl	-11.9968
▁impress	-11.997
▁caramel	-11.9972
▁mama	-11.9972
▁instinct	-11.9972
state	-11.9977
ding	-11.9984
▁trail	-11.9986
▁fin	-11.9992
▁print	-11.9997
▁signal	-11.9998
boy	-12.0012
▁hmmm	-12.0016
▁spe	-12.0018
▁surviv	-12.0022
▁among	-12.0032
stance	-12.0037
▁ob	-12.004
▁boots	-12.004
▁eve	-12.0044
ap	-12.0048
chi	-12.005
ud	-12.0051
▁attract	-12.0073
▁ol	-12.0073
▁jell	-12.008
iest	-12.008
shirt	-12.0083
▁collecti	-12.0087
▁traumati	-12.0095
▁clog	-12.0098
▁youth	-12.011
▁jogg	-12.014
craft	-12.0154
cile	-12.0157
▁transfer	-12.0161
acted	-12.017
plant	-12.0178
ebra	-12.0209
ize	-12.0217
hood	-12.022
▁kar	-12.0239
▁uk	-12.0244
▁lit	-12.0246
▁kim	-12.0249
▁compar	-12.0252
▁courses	-12.0275
▁freakin	-12.0287
rent	-12.03
▁butt	-12.0304
▁monster	-12.0311
▁mode	-12.0316
nstantly	-12.032
▁mi	-12.0326
artment	-12.0327
▁resident	-12.0331
umped	-12.0342
▁intentional	-12.0352
▁weigh	-12.0353
▁nei	-12.0353
▁bullie	-12.0359
▁zip	-12.0374
▁submitt	-12.0386
▁interviewer	-12.039
▁greed	-12.0399
retake	-12.0416
▁mature	-12.0417
▁complaint	-12.0419
▁bbq	-12.0422
▁illegal	-12.0423
▁miami	-12.0423
▁exotic	-12.0423
▁disneyworld	-12.0423
▁jeez	-12.0424
▁meaningful	-12.0424
▁$1000	-12.0424
▁smartphone	-12.0426
▁error	-12.0426
▁fantas	-12.0428
▁wrist	-12.0429
▁jeep	-12.0431
▁statistics	-12.0431
▁politics	-12.0432
olley	-12.0432
▁lump	-12.0437
ust	-12.0439
▁admitted	-12.0439
▁defense	-12.0441
▁counsel	-12.0445
▁status	-12.0446
▁wisdo	-12.0448
point	-12.0453
▁appliance	-12.0455
▁judgment	-12.0457
agile	-12.0461
▁nugget	-12.0461
▁civi	-12.047
▁dug	-12.0477
▁cents	-12.0488
▁inspiration	-12.0493
rejection	-12.0497
▁assist	-12.0499
▁bak	-12.0502
▁candles	-12.0502
▁van	-12.0504
▁apartments	-12.0506
ga	-12.0519
▁clin	-12.0531
▁tent	-12.0542
50	-12.0568
▁rally	-12.0571
▁beans	-12.0576
▁luc	-12.0583
▁behav	-12.0605
▁burning	-12.061
▁furthe	-12.0615
▁desire	-12.0617
ors	-12.0626
▁factor	-12.0632
▁justice	-12.0645
▁flooding	-12.0652
▁pizzas	-12.0664
▁therapi	-12.0682
umbled	-12.069
cky	-12.0698
beat	-12.0725
▁dive	-12.0729
▁stru	-12.0733
▁releas	-12.0734
▁oof	-12.0736
rete	-12.0743
if	-12.0772
▁reassur	-12.0784
▁towel	-12.0785
like	-12.079
▁gang	-12.0798
▁advise	-12.0809
▁appropriate	-12.0813
▁expense	-12.0817
▁75	-12.082
▁devil	-12.082
▁bounc	-12.0823
▁hook	-12.0835
rying	-12.0837
▁tub	-12.0842
eath	-12.0844
les	-12.0863
▁treating	-12.0876
▁mal	-12.0881
ations	-12.0882
▁medi	-12.0883
▁val	-12.0885
▁press	-12.089
▁redo	-12.0898
▁obvious	-12.0913
▁organi	-12.0915
▁disagree	-12.0921
▁elephant	-12.0922
▁turbul	-12.0922
▁naughty	-12.0923
▁shotgun	-12.0923
▁occup	-12.0923
▁skateboard	-12.0923
▁napkin	-12.0923
▁remeber	-12.0923
▁95%	-12.0923
▁balloon	-12.0923
▁acknowledge	-12.0923
▁autonom	-12.0923
▁massage	-12.0923
▁passenger	-12.0924
▁strike	-12.0924
▁pillow	-12.0925
▁experiment	-12.0925
▁download	-12.0927
▁filter	-12.0927
▁airline	-12.093
▁march	-12.093
▁mosquitoes	-12.0931
▁campus	-12.0934
▁inherit	-12.0937
▁delight	-12.0938
▁fraud	-12.0939
▁source	-12.094
▁german	-12.0943
▁warriors	-12.0943
▁$2	-12.0951
▁useless	-12.0955
▁glove	-12.0956
▁joking	-12.0966
▁critters	-12.0973
▁river	-12.0973
▁submit	-12.0984
▁pricey	-12.0988
▁log	-12.0993
▁layer	-12.0998
▁twentie	-12.1
▁cuddle	-12.1004
▁elses	-12.1005
▁square	-12.1017
▁convenience	-12.102
pute	-12.1034
▁wander	-12.1034
ug	-12.1035
▁poorly	-12.1045
▁bleed	-12.1047
▁deny	-12.105
▁woode	-12.1058
▁begg	-12.1063
▁shipp	-12.1067
▁rome	-12.108
but	-12.1093
▁boxer	-12.1101
▁ste	-12.1104
▁kissing	-12.1106
cockroaches	-12.1107
▁joint	-12.1107
▁ben	-12.1115
▁hobb	-12.1117
use	-12.1123
rely	-12.113
▁deb	-12.1142
thetic	-12.1143
▁rains	-12.1144
▁flake	-12.1145
▁ups	-12.1151
▁grace	-12.116
▁pilot	-12.116
tar	-12.1173
fa	-12.1174
▁denie	-12.1186
▁cycle	-12.1201
ee	-12.1203
▁drums	-12.1221
▁swell	-12.1232
rry	-12.1236
▁alg	-12.124
tom	-12.1245
▁triple	-12.1252
▁tag	-12.1258
▁unusual	-12.1262
▁peel	-12.127
loved	-12.1278
▁continu	-12.1284
▁tap	-12.1285
head	-12.1295
▁psych	-12.1317
arded	-12.1328
▁hip	-12.1345
lease	-12.1353
liner	-12.1357
door	-12.1359
$	-12.1365
▁computers	-12.1381
▁outdoor	-12.1385
▁biting	-12.1386
ove	-12.1391
▁vi	-12.1391
▁$8	-12.1395
▁00	-12.1395
shes	-12.1405
▁dare	-12.1412
▁smack	-12.1414
▁noble	-12.1427
ong	-12.1431
▁snapp	-12.1437
nder	-12.1443
▁carolina	-12.1449
▁cleveland	-12.1449
▁fashion	-12.1449
▁ghetto	-12.1449
▁sneeze	-12.1449
▁sunshine	-12.1449
▁supercopa	-12.1449
▁encounter	-12.1449
▁ornament	-12.1449
▁royal	-12.1449
▁jiu	-12.1449
▁deploy	-12.1449
▁midwest	-12.1449
▁activity	-12.1449
▁flashlight	-12.1449
▁chainsaw	-12.1449
▁pyr	-12.1451
▁frankl	-12.1453
▁confide	-12.1453
▁cardio	-12.1454
▁refreshing	-12.1455
▁intimidating	-12.1463
▁bubble	-12.1466
sion	-12.1475
▁paris	-12.1477
▁appear	-12.1478
▁scout	-12.1481
▁praise	-12.1483
ile	-12.1485
▁moral	-12.1489
▁represent	-12.1489
▁cor	-12.1493
▁optom	-12.1495
iting	-12.151
▁dragg	-12.1513
▁cloth	-12.1514
▁mini	-12.1514
▁cr	-12.1518
▁prom	-12.152
▁enem	-12.153
rried	-12.1538
▁achiev	-12.1555
▁curve	-12.1556
off	-12.1556
▁fry	-12.1566
▁mask	-12.1569
ff	-12.1572
ha	-12.1577
▁beers	-12.1581
▁affected	-12.1586
▁unsu	-12.1599
▁freez	-12.1614
▁belie	-12.1619
▁matern	-12.1622
▁incompeten	-12.1625
▁rubb	-12.163
▁bid	-12.1641
▁jar	-12.1646
▁\	-12.1648
▁fears	-12.1664
▁dash	-12.1674
▁burgers	-12.1681
lamp	-12.1719
feedback	-12.1729
▁appall	-12.1732
@	-12.1736
familiar	-12.1759
▁tur	-12.1763
▁dumps	-12.1767
▁cooler	-12.1773
pho	-12.178
▁comp	-12.1782
▁worm	-12.1795
▁blam	-12.1808
▁convinc	-12.1808
▁shri	-12.1813
▁skate	-12.1825
▁dedicate	-12.1831
▁hurricanes	-12.1832
line	-12.1845
▁asks	-12.1858
▁sock	-12.1869
▁nin	-12.1885
pe	-12.1891
▁barbe	-12.1896
▁fever	-12.1896
5%	-12.1903
▁finance	-12.1906
▁merc	-12.1912
▁string	-12.1916
rowing	-12.192
▁babysitt	-12.1929
▁shout	-12.1931
look	-12.1931
▁para	-12.1945
ward	-12.1946
ade	-12.1963
▁assistan	-12.1969
have	-12.1984
ketch	-12.1996
▁ambulance	-12.2004
▁anonymous	-12.2004
▁conflict	-12.2004
▁convention	-12.2004
▁heirloom	-12.2004
▁williams	-12.2004
▁technician	-12.2004
▁silver	-12.2004
▁phobia	-12.2004
▁toyota	-12.2005
▁monkey	-12.2005
▁remodel	-12.2005
▁valid	-12.2005
▁resort	-12.2005
▁hungover	-12.2005
▁possession	-12.2007
▁suspicio	-12.2007
▁calorie	-12.2007
▁imagination	-12.2008
▁sentence	-12.2009
▁approv	-12.2009
▁trunk	-12.2009
▁warrant	-12.201
▁development	-12.2011
▁29	-12.2012
▁stead	-12.2013
▁academic	-12.2014
▁rapid	-12.2014
▁swarm	-12.2015
▁password	-12.2015
nel	-12.2015
▁mustang	-12.2016
▁31	-12.2016
▁griev	-12.2017
stian	-12.2021
key	-12.2021
▁robot	-12.2024
phew	-12.2026
▁violent	-12.2031
▁presence	-12.2037
▁stronger	-12.2044
▁plot	-12.2045
▁puzzle	-12.2048
▁mon	-12.205
▁hospi	-12.2051
▁nike	-12.207
11	-12.2079
▁grudge	-12.2081
▁underdog	-12.2081
▁-)	-12.2085
▁sticks	-12.2089
▁squa	-12.2089
▁exhaust	-12.2095
▁concentrat	-12.2097
long	-12.21
▁rape	-12.2106
▁goin	-12.2109
▁inches	-12.211
▁recovery	-12.2118
▁bounce	-12.2118
▁26	-12.2121
ailor	-12.2141
rate	-12.215
▁dust	-12.2159
bike	-12.2168
▁pace	-12.2173
▁decorate	-12.2176
▁pin	-12.218
uch	-12.2184
sue	-12.2204
▁qu	-12.2204
▁eh	-12.2221
▁blank	-12.223
▁witnesse	-12.2231
▁mates	-12.2236
ration	-12.2242
cat	-12.2256
▁stars	-12.2271
▁bikes	-12.2297
▁wheat	-12.2318
▁contain	-12.232
un	-12.2321
pilot	-12.2321
seba	-12.2322
stick	-12.2322
▁lean	-12.2324
wed	-12.2328
▁nic	-12.2328
▁apps	-12.2337
lt	-12.2365
▁yog	-12.2372
▁ew	-12.2376
▁sides	-12.2399
▁wishes	-12.2408
▁fade	-12.2414
▁dece	-12.2417
▁qui	-12.242
0$	-12.242
▁199	-12.2436
▁brat	-12.2457
▁congratulation	-12.2469
▁criminal	-12.2474
aid	-12.2476
ecent	-12.2483
▁publish	-12.2493
park	-12.2498
▁deli	-12.25
ility	-12.2512
▁fla	-12.252
▁replac	-12.252
▁feder	-12.2541
▁bost	-12.2542
▁distract	-12.2543
▁curs	-12.2558
▁lea	-12.2578
▁ban	-12.2585
▁practical	-12.2587
▁leads	-12.259
▁antibiotic	-12.2593
▁bouquet	-12.2593
▁lobster	-12.2593
▁microwave	-12.2593
▁watermelon	-12.2593
▁luggage	-12.2593
▁energetic	-12.2593
▁georgia	-12.2593
▁jewelry	-12.2593
▁vivid	-12.2593
▁lanai	-12.2593
▁cliff	-12.2593
▁barefoot	-12.2593
▁nanny	-12.2593
▁brief	-12.2593
▁biops	-12.2593
▁resume	-12.2593
▁cosign	-12.2593
▁administ	-12.2594
▁regardless	-12.2594
▁splash	-12.2594
▁reboot	-12.2594
▁crazies	-12.2595
▁adrenaline	-12.2596
fume	-12.2598
▁planet	-12.26
▁darkness	-12.26
▁prompt	-12.2604
edication	-12.2604
▁ordeal	-12.2605
▁region	-12.2607
▁retrieve	-12.2611
▁mutt	-12.2612
▁relaxation	-12.2612
▁petty	-12.2614
nning	-12.2616
rushing	-12.2627
eville	-12.2628
▁sleepover	-12.2629
▁va	-12.2633
▁cure	-12.2635
▁tailgate	-12.2636
▁indoor	-12.264
▁recieve	-12.264
▁doll	-12.2644
ficial	-12.2646
▁chili	-12.2651
▁$80	-12.2653
▁nerd	-12.2654
▁fellow	-12.2681
▁overse	-12.2685
years	-12.2687
rizon	-12.2696
▁rocks	-12.2697
▁affordable	-12.2698
▁el	-12.2707
mo	-12.2707
▁max	-12.2715
done	-12.2717
▁woo	-12.2719
▁satisfy	-12.2727
ngs	-12.2754
▁etern	-12.2757
izer	-12.2773
▁backup	-12.2789
▁site	-12.2804
▁strippe	-12.2816
did	-12.2823
ul	-12.2835
▁rea	-12.2877
ole	-12.2883
▁tow	-12.2884
rian	-12.2887
ls	-12.2895
which	-12.2903
▁landscape	-12.2914
ans	-12.2924
▁elections	-12.2927
ament	-12.2936
aw	-12.2945
▁clums	-12.2948
▁heads	-12.2949
▁accounting	-12.2958
▁weak	-12.2967
▁disabilit	-12.2967
ency	-12.2968
antic	-12.2971
lot	-12.2978
▁excuses	-12.2983
▁perk	-12.2987
▁topic	-12.2997
▁lighten	-12.2998
na	-12.3003
loaf	-12.3007
▁contra	-12.3012
girlfriend	-12.3014
ased	-12.3024
▁trait	-12.3026
▁shak	-12.3029
jack	-12.304
▁wire	-12.3044
inner	-12.3051
da	-12.3052
▁eba	-12.3054
ays	-12.3062
▁bow	-12.3071
▁ham	-12.3073
▁crashing	-12.3091
▁films	-12.3097
▁joe	-12.3105
eddy	-12.3117
▁pickle	-12.3128
▁raff	-12.3134
▁killer	-12.3136
ify	-12.3149
,	-12.3151
▁gamble	-12.3156
▁connect	-12.3156
▁hyper	-12.316
will	-12.3189
▁remove	-12.3208
▁ahhh	-12.321
17	-12.3215
▁brazil	-12.3218
▁diploma	-12.3218
▁principal	-12.3218
▁strzok	-12.3218
▁electronic	-12.3218
▁favourite	-12.3218
▁resource	-12.3218
▁swift	-12.3218
▁overflow	-12.3218
▁gramma	-12.3219
▁obama	-12.3219
▁infant	-12.3219
▁documentary	-12.322
▁rattle	-12.322
▁ensure	-12.322
▁temporar	-12.3223
▁obedien	-12.3223
▁programming	-12.3224
▁rumor	-12.3226
▁legal	-12.3229
▁contractor	-12.323
ikea	-12.3233
▁debate	-12.3234
▁doggie	-12.3236
▁journal	-12.3238
▁teammate	-12.3243
▁supplements	-12.3244
▁privacy	-12.3251
▁reply	-12.3254
▁candies	-12.326
▁boom	-12.3265
▁breathe	-12.3265
surface	-12.3274
sing	-12.3276
▁update	-12.3281
earing	-12.3282
▁ceo	-12.3284
▁millionaire	-12.3289
▁awwww	-12.3311
▁engage	-12.3315
▁potato	-12.3316
▁ordina	-12.3317
tle	-12.3319
rms	-12.332
▁thou	-12.3323
▁dat	-12.3324
▁intention	-12.333
▁spank	-12.3333
▁rack	-12.3344
▁amaze	-12.3353
▁skir	-12.3355
▁sur	-12.3374
ching	-12.3374
▁indicat	-12.3386
▁sho	-12.3386
▁cub	-12.3394
hed	-12.3396
ica	-12.34
▁priorit	-12.3404
oni	-12.3413
working	-12.343
▁plain	-12.3437
▁loser	-12.3439
▁pho	-12.3441
▁entirely	-12.3449
▁serv	-12.3452
▁mild	-12.3456
water	-12.3456
witch	-12.3458
la	-12.3492
▁filth	-12.3495
▁ash	-12.3498
▁provid	-12.3499
▁shade	-12.3502
▁code	-12.351
12	-12.3513
half	-12.3513
front	-12.3515
▁sauces	-12.3525
▁plannin	-12.354
load	-12.3552
▁memorabl	-12.3552
▁revolt	-12.3554
accept	-12.3554
foot	-12.3564
▁atlant	-12.3572
▁banks	-12.3587
▁rap	-12.3588
pleasant	-12.3593
▁fist	-12.3595
▁simp	-12.3598
▁thai	-12.3603
arted	-12.3605
▁ripp	-12.361
▁licens	-12.3613
▁scrape	-12.3621
▁roads	-12.3627
▁confrontation	-12.3632
▁bun	-12.3642
▁lick	-12.3661
think	-12.3681
dn	-12.3687
robe	-12.3698
llen	-12.3704
▁tape	-12.371
ney	-12.3711
▁hahahaha	-12.3715
▁veg	-12.3733
when	-12.374
▁sincere	-12.3741
lor	-12.3749
taly	-12.3754
▁wing	-12.3759
▁har	-12.3759
▁ps	-12.3762
▁zombie	-12.3767
dies	-12.3772
▁ru	-12.3799
▁describe	-12.3804
▁accomplishments	-12.3806
▁chu	-12.3817
▁greatly	-12.382
bby	-12.3821
▁statue	-12.3828
▁vaca	-12.383
sted	-12.3837
▁investigate	-12.384
▁choos	-12.3853
▁ewww	-12.3854
▁socialize	-12.3855
▁decline	-12.3857
▁thi	-12.3865
▁racking	-12.3879
▁recruit	-12.3884
▁24/7	-12.3884
▁coconut	-12.3884
▁genuine	-12.3884
▁parachut	-12.3884
▁ravioli	-12.3884
▁entrance	-12.3884
▁guarantee	-12.3884
▁permanent	-12.3884
▁temperature	-12.3884
▁revenge	-12.3884
▁cheerlead	-12.3884
▁maintenance	-12.3884
▁cinna	-12.3884
▁2019	-12.3884
▁soulmate	-12.3884
▁monitor	-12.3885
▁advocate	-12.3885
▁permission	-12.3885
▁competitor	-12.3885
▁maxim	-12.3885
▁fibro	-12.3885
▁unfold	-12.3886
▁scott	-12.3886
▁dozen	-12.3887
▁disown	-12.3889
▁ab	-12.3892
▁incorrect	-12.3893
▁bridge	-12.3895
▁juic	-12.3895
▁buff	-12.3896
▁exited	-12.3896
▁disturbing	-12.3896
▁saint	-12.3897
▁epic	-12.3897
▁blond	-12.39
▁satisfact	-12.3904
▁alert	-12.3905
▁suspend	-12.3906
▁peeve	-12.3906
▁bodybuild	-12.3908
▁gotcha	-12.391
▁brighter	-12.3911
▁stone	-12.3912
▁vitamins	-12.3913
▁mobile	-12.3913
▁videogame	-12.3915
▁intelligent	-12.3916
▁limb	-12.3919
▁hotdog	-12.3922
▁equal	-12.3924
▁este	-12.3924
▁concerns	-12.3926
▁investor	-12.393
▁ladder	-12.3933
▁manners	-12.3936
▁jur	-12.3939
ancy	-12.3939
▁smacked	-12.394
pm	-12.3942
▁fuzz	-12.3947
▁grinding	-12.3953
assic	-12.3955
▁je	-12.3958
▁swor	-12.396
▁chees	-12.3962
▁cracker	-12.3963
racking	-12.3964
▁inspect	-12.397
▁hammer	-12.3976
▁jumps	-12.3977
▁menu	-12.398
▁pigg	-12.3984
▁dig	-12.3985
▁violin	-12.3998
ved	-12.3999
▁contribut	-12.4008
▁sin	-12.4016
▁publishe	-12.4017
▁beaches	-12.4028
▁carefully	-12.4029
ger	-12.403
▁bail	-12.4031
▁discourag	-12.4037
▁col	-12.4037
med	-12.4047
▁jes	-12.405
▁pure	-12.4065
ris	-12.4066
▁prett	-12.407
▁potter	-12.4075
▁locally	-12.4082
▁introduc	-12.409
▁cringe	-12.4091
▁introvert	-12.4095
▁nab	-12.4096
▁investing	-12.4096
little	-12.4114
▁companions	-12.4121
▁deducti	-12.4122
▁evacuate	-12.4133
▁che	-12.4134
ron	-12.4144
▁cock	-12.4165
▁spin	-12.4183
▁yumm	-12.4194
tra	-12.4201
▁outback	-12.4203
▁soak	-12.4212
▁grap	-12.4222
gh	-12.4224
power	-12.4243
▁spa	-12.4243
▁startle	-12.4256
stic	-12.4259
▁cancell	-12.4261
rangle	-12.4263
▁twi	-12.4264
▁mistaken	-12.4264
▁defin	-12.4268
nique	-12.4283
burger	-12.4292
▁br	-12.43
▁swerv	-12.43
▁imagin	-12.4301
▁compell	-12.4303
cked	-12.4308
▁holes	-12.4309
phone	-12.431
▁65	-12.4314
▁author	-12.4322
they	-12.4332
\	-12.4332
▁stre	-12.434
home	-12.4344
ably	-12.4346
advanced	-12.4349
▁dented	-12.4355
▁horses	-12.4359
▁roo	-12.4365
met	-12.437
style	-12.4371
▁rot	-12.438
ore	-12.4381
▁aaa	-12.4387
▁swa	-12.4401
cam	-12.4433
▁india	-12.4438
▁vul	-12.446
▁section	-12.4461
▁sacrifice	-12.447
▁picky	-12.4472
ping	-12.4475
▁grandparent	-12.4485
▁insult	-12.4486
▁connection	-12.4486
▁350	-12.4487
▁benefit	-12.4492
▁lu	-12.4493
▁alien	-12.4495
ig	-12.4497
▁embarrass	-12.4498
▁candle	-12.4506
▁toast	-12.4532
▁shakes	-12.4535
li	-12.454
mother	-12.4544
▁organiz	-12.4545
▁dishearten	-12.455
cube	-12.4572
▁brag	-12.4587
▁russia	-12.4591
▁lecture	-12.4592
▁vegeta	-12.4597
▁exhibit	-12.4599
▁fierce	-12.4599
▁genius	-12.4599
▁louisiana	-12.4599
▁splurge	-12.4599
▁unzipped	-12.4599
▁disgrace	-12.4599
▁neutral	-12.4599
▁argentin	-12.4599
▁jordan	-12.4599
▁formula	-12.4599
▁hillbill	-12.4599
▁trigger	-12.4599
▁adapt	-12.4599
▁jerry	-12.4599
▁percent	-12.4599
▁overdraft	-12.4599
▁marvel	-12.4599
▁remorseful	-12.4599
▁streak	-12.4599
▁assembl	-12.4599
▁cellphone	-12.46
▁ridden	-12.4601
▁congratulat	-12.4601
▁temptation	-12.4602
▁jazz	-12.4603
▁humor	-12.4604
▁analyst	-12.4604
▁attach	-12.4606
▁lecturer	-12.4608
▁ohhhh	-12.461
▁disappointment	-12.4612
▁aspect	-12.4613
▁misunderstand	-12.4614
▁jog	-12.4614
still	-12.4615
▁scan	-12.4617
▁involve	-12.4622
els	-12.4624
eful	-12.4624
inste	-12.4626
▁collector	-12.4629
▁fondly	-12.4629
▁wif	-12.463
▁broad	-12.463
▁sweep	-12.463
▁russian	-12.4632
▁crew	-12.4632
▁homes	-12.4637
▁teary	-12.464
potle	-12.4642
▁99	-12.4644
▁shredd	-12.4645
▁commend	-12.4645
▁facetime	-12.4648
▁flower	-12.4654
▁knit	-12.4656
▁hustle	-12.4658
▁anyhow	-12.4669
ssive	-12.467
▁harass	-12.4673
▁dodge	-12.4678
▁cautio	-12.468
▁growth	-12.4683
▁gap	-12.4685
▁intended	-12.469
▁punished	-12.4694
▁surge	-12.4694
▁7-	-12.4704
▁tension	-12.4707
▁carton	-12.4712
lico	-12.4717
▁reverse	-12.4719
▁lad	-12.4722
▁link	-12.4726
rrow	-12.4733
▁digg	-12.4734
▁vow	-12.4741
▁connected	-12.4775
▁silen	-12.4777
oke	-12.4778
leans	-12.4782
ana	-12.4789
unker	-12.4792
aced	-12.4794
▁balls	-12.4798
▁cla	-12.4806
▁vo	-12.4808
dental	-12.4815
llo	-12.4827
▁matt	-12.4831
▁magical	-12.4832
▁kings	-12.4832
▁combin	-12.4838
ise	-12.484
▁sheet	-12.485
▁ap	-12.4853
▁slot	-12.4873
▁concerts	-12.4881
▁warn	-12.4891
final	-12.4895
make	-12.4902
ier	-12.4902
put	-12.4903
▁bleach	-12.4907
▁q	-12.4908
▁awh	-12.4923
▁whoop	-12.4928
nk	-12.4929
▁verbal	-12.4937
▁wrestle	-12.4943
▁smil	-12.4948
gun	-12.4951
nic	-12.4952
stern	-12.4966
▁writer	-12.4971
mbled	-12.4971
▁rash	-12.4975
▁eight	-12.4976
hose	-12.498
▁mount	-12.4986
▁admir	-12.4988
cut	-12.5003
▁calming	-12.5005
eces	-12.5007
ky	-12.5008
▁nause	-12.5021
▁rum	-12.5023
▁piss	-12.5026
za	-12.5027
▁ri	-12.5034
▁employers	-12.5035
▁happ	-12.5051
irty	-12.5053
▁strap	-12.506
▁ward	-12.5064
▁procrastinate	-12.5068
▁procrastinat	-12.5071
his	-12.5079
daddy	-12.5092
=	-12.5094
▁jan	-12.5098
ven	-12.5098
▁upper	-12.5101
▁shou	-12.5102
▁ni	-12.5112
▁fav	-12.5114
▁cou	-12.5134
pool	-12.5151
times	-12.5163
sensitiv	-12.5169
vi	-12.5175
▁virtual	-12.5191
▁sore	-12.5199
▁comfortabl	-12.5202
right	-12.5204
▁calculat	-12.5213
▁$60	-12.5214
de	-12.5216
▁keeper	-12.5221
ons	-12.5221
▁procedure	-12.5229
▁wet	-12.5233
print	-12.5249
get	-12.5257
lled	-12.5266
husband	-12.5274
▁cho	-12.5285
▁prest	-12.5287
patio	-12.5288
▁tshirt	-12.5293
▁oppos	-12.5297
▁astonishe	-12.5303
prit	-12.5311
tant	-12.5318
▁sal	-12.5321
▁unlock	-12.5323
minator	-12.5331
▁hol	-12.5335
trip	-12.5336
▁stare	-12.5347
ssy	-12.5347
▁ideal	-12.5348
rite	-12.5359
just	-12.5365
▁fascinat	-12.5368
▁filipino	-12.5368
▁forecast	-12.5368
▁millenial	-12.5368
▁qualification	-12.5368
▁squeeze	-12.5368
▁syndrom	-12.5368
▁leisure	-12.5368
▁seagull	-12.5368
▁caregiver	-12.5368
▁dolphin	-12.5368
▁bennet	-12.5368
▁clutter	-12.5368
▁breweries	-12.5368
▁worrisome	-12.5368
▁thieves	-12.5368
▁backflip	-12.5368
▁nominat	-12.5368
▁unhealthy	-12.5368
▁republican	-12.5368
▁liquor	-12.5369
▁preorder	-12.5369
▁unaware	-12.5369
▁disorder	-12.5369
▁punishment	-12.5369
▁orient	-12.5369
▁referring	-12.5369
▁grasp	-12.537
▁cricket	-12.537
▁spaceship	-12.537
▁calc	-12.537
▁preference	-12.5371
▁device	-12.5371
▁teasing	-12.5372
▁priceless	-12.5373
▁hershey	-12.5374
▁kidney	-12.5374
▁hoarder	-12.5374
wn	-12.5375
▁blinker	-12.5375
▁judging	-12.5378
▁unlikely	-12.5378
▁hairball	-12.5379
▁sci	-12.5379
▁201	-12.538
▁suggestion	-12.5384
▁mystery	-12.5387
▁undermin	-12.5394
▁concept	-12.5395
▁background	-12.5398
▁clinic	-12.5399
▁bacon	-12.5399
▁traumatizing	-12.5403
▁appreciation	-12.5413
▁accus	-12.5414
▁brighten	-12.5414
iety	-12.5415
▁cit	-12.5416
▁98	-12.5416
top	-12.5419
▁rover	-12.5422
▁cave	-12.5427
nes	-12.543
terior	-12.5431
▁sufficien	-12.5431
▁buried	-12.5435
▁instance	-12.544
▁unreal	-12.544
ique	-12.544
▁unfortunatl	-12.544
▁arti	-12.5446
iff	-12.5447
▁flea	-12.5447
▁strict	-12.5447
▁lif	-12.5453
▁takin	-12.5455
▁fuss	-12.5457
▁vision	-12.5459
▁according	-12.5463
▁convers	-12.5464
7	-12.5468
▁wrapp	-12.5471
super	-12.5475
▁roast	-12.5483
anoi	-12.5485
▁dancer	-12.5496
▁movement	-12.5496
▁dies	-12.5499
idden	-12.551
▁novel	-12.5516
▁infinit	-12.5527
ups	-12.5529
▁gene	-12.5533
▁gi	-12.5537
▁degrees	-12.5537
▁gymnast	-12.5564
▁roam	-12.5569
▁spur	-12.5576
▁lat	-12.5577
▁inevitabl	-12.5582
▁exter	-12.56
▁gree	-12.5616
lk	-12.5616
▁nagg	-12.5622
▁reliv	-12.5628
▁parade	-12.563
ester	-12.5637
▁stud	-12.5657
imple	-12.5657
sis	-12.5661
▁liar	-12.5669
▁orl	-12.5671
ended	-12.5671
itude	-12.5679
▁flyer	-12.5683
break	-12.5703
course	-12.5705
cing	-12.5714
▁rank	-12.5714
bon	-12.5715
▁snu	-12.5732
▁bruise	-12.5735
▁easie	-12.5747
▁saver	-12.5752
▁anticipate	-12.5757
sky	-12.5757
ight	-12.5767
▁zoom	-12.5772
+	-12.5777
▁materials	-12.578
▁independen	-12.5796
ker	-12.5798
▁wrestl	-12.5811
▁mud	-12.5812
▁sync	-12.5819
pt	-12.5828
scription	-12.5844
wind	-12.5845
▁feat	-12.5845
▁ea	-12.5848
gus	-12.5873
64	-12.5875
tis	-12.588
▁cul	-12.5886
sick	-12.5897
unge	-12.5899
▁trimm	-12.59
▁trivia	-12.5904
▁thirt	-12.5906
▁occurr	-12.5911
der	-12.5913
hill	-12.5918
▁leader	-12.5924
dge	-12.5929
▁demo	-12.5929
alaska	-12.5936
screen	-12.5948
▁lone	-12.5952
aming	-12.5953
riving	-12.5962
▁gla	-12.5975
▁additional	-12.5978
ast	-12.598
pics	-12.5983
opping	-12.5984
▁dresse	-12.5991
▁fails	-12.5994
about	-12.5994
▁punche	-12.6007
ung	-12.6017
▁brac	-12.6022
sons	-12.6033
▁exciti	-12.6035
▁gagg	-12.6054
▁vol	-12.6063
▁epi	-12.6074
!	-12.6093
▁stretch	-12.6101
▁upgrad	-12.6111
▁pierc	-12.6117
▁surger	-12.612
mommy	-12.6127
roach	-12.6131
▁meg	-12.6132
▁tune	-12.6132
▁pops	-12.615
yo	-12.6151
15	-12.617
aware	-12.6188
ock	-12.6198
▁suburb	-12.6198
▁plac	-12.6199
▁remorse	-12.6201
▁bugatti	-12.6201
▁chevrolet	-12.6201
▁magazine	-12.6201
▁nissan	-12.6201
▁precaution	-12.6201
▁presidency	-12.6201
▁trepidatio	-12.6201
▁valentine	-12.6201
▁coordinate	-12.6201
▁nigeria	-12.6201
▁victim	-12.6201
▁stereo	-12.6201
▁congress	-12.6201
▁salvage	-12.6201
▁seperate	-12.6201
▁ultrasound	-12.6201
▁grandchild	-12.6202
▁copper	-12.6202
▁oyster	-12.6202
partment	-12.6202
▁playstation	-12.6202
▁vis	-12.6203
▁audition	-12.6203
▁extort	-12.6203
▁interaction	-12.6205
▁penny	-12.6206
▁network	-12.6206
▁undies	-12.6206
▁bartend	-12.6207
▁booger	-12.6208
▁insect	-12.6209
▁production	-12.6209
▁torture	-12.6209
▁proceed	-12.6209
▁bleh	-12.6211
▁rifle	-12.6213
▁frustration	-12.6216
ronic	-12.6217
▁diligent	-12.6218
▁bride	-12.6218
▁encouraging	-12.6218
▁troubling	-12.622
▁shaky	-12.6223
▁inconvenien	-12.6223
etic	-12.623
ics	-12.6231
bed	-12.6235
▁lous	-12.6237
last	-12.624
▁empath	-12.6244
▁misse	-12.6247
▁embrac	-12.6247
talk	-12.6247
▁juggl	-12.6251
ctors	-12.626
▁exhausting	-12.6262
▁ow	-12.6266
▁fighters	-12.627
▁dna	-12.627
▁astonish	-12.6273
▁universe	-12.6273
▁mandat	-12.6275
gles	-12.6276
▁strateg	-12.6277
▁sheep	-12.6277
▁wai	-12.6278
▁obsess	-12.6287
▁features	-12.6287
▁depo	-12.6296
▁utilit	-12.6296
▁seller	-12.6297
▁infect	-12.6297
▁politicians	-12.6298
▁alter	-12.6299
▁funnie	-12.6299
io	-12.6299
▁ep	-12.6303
ism	-12.631
ential	-12.6315
ets	-12.632
native	-12.6323
▁oreo	-12.6325
▁venture	-12.6327
▁hous	-12.6332
▁expert	-12.6333
▁theres	-12.6337
▁pursu	-12.6345
▁rams	-12.6348
▁))	-12.6357
eric	-12.636
od	-12.6368
hroom	-12.6374
▁tast	-12.6377
▁dri	-12.6379
them	-12.6388
▁identi	-12.6392
93	-12.6397
▁indian	-12.6399
▁slick	-12.6405
few	-12.6416
ando	-12.6421
▁palm	-12.643
▁remaining	-12.6441
▁civil	-12.6443
▁apologi	-12.6447
▁veni	-12.6448
▁mole	-12.6451
▁bob	-12.6451
▁closes	-12.6451
▁var	-12.6456
ece	-12.6456
▁spark	-12.6458
sorry	-12.646
zer	-12.6469
▁sats	-12.647
▁excite	-12.6487
▁haunt	-12.6488
▁waist	-12.6491
arby	-12.6494
▁devast	-12.6495
ric	-12.6496
▁rad	-12.6498
ives	-12.6506
nch	-12.6512
▁$250	-12.6514
step	-12.6517
▁leaders	-12.6528
▁allergi	-12.6539
tha	-12.6541
ler	-12.6544
▁chow	-12.6546
▁psycho	-12.6551
▁ou	-12.6559
stress	-12.6559
▁spirits	-12.6572
▁loaf	-12.6574
▁scale	-12.6586
cha	-12.6593
▁corrected	-12.6602
▁cl	-12.6603
▁dim	-12.6609
▁mush	-12.6618
▁lett	-12.6622
ound	-12.6631
mph	-12.6631
▁multi	-12.6632
▁fif	-12.6636
▁races	-12.6637
▁prospect	-12.6643
▁blog	-12.6658
▁dogg	-12.6661
py	-12.6667
iness	-12.6683
prised	-12.6722
finalist	-12.6723
gon	-12.6732
▁ches	-12.6735
▁croc	-12.6737
ski	-12.6739
ety	-12.6749
nding	-12.6753
mos	-12.6759
▁fri	-12.6761
▁skyp	-12.6766
▁destructi	-12.677
▁bulls	-12.6773
shake	-12.6778
berry	-12.6778
fidelity	-12.6782
▁notify	-12.6794
guard	-12.6804
pointed	-12.6808
▁occurre	-12.6808
▁twist	-12.681
slide	-12.6817
▁vot	-12.6817
▁wan	-12.6819
rid	-12.6837
ake	-12.6852
▁bold	-12.6861
▁thr	-12.6863
pack	-12.6864
▁stepda	-12.688
▁bour	-12.6882
▁shine	-12.6882
bo	-12.6886
cture	-12.6896
/2	-12.6897
▁beg	-12.6903
escription	-12.6903
▁196	-12.6905
shop	-12.6907
▁surprises	-12.6911
▁testi	-12.6913
tube	-12.6915
▁shall	-12.6919
wife	-12.6934
ustin	-12.6962
▁bombs	-12.6973
rote	-12.6974
▁doo	-12.6975
logne	-12.7002
▁director	-12.7008
▁ki	-12.701
▁sigh	-12.7012
30	-12.7013
ngers	-12.7014
▁sour	-12.7023
ugh	-12.7025
esh	-12.7034
20	-12.7043
apping	-12.7044
sian	-12.7045
▁accord	-12.7045
▁certifi	-12.7073
heard	-12.708
▁wealth	-12.7081
▁strip	-12.7087
▁bone	-12.7087
▁rider	-12.7089
from	-12.7096
aying	-12.7101
▁clo	-12.7104
▁transport	-12.7109
▁glob	-12.711
▁alzheimer	-12.711
▁bipolar	-12.711
▁tahiti	-12.711
▁triathlon	-12.711
▁virgin	-12.711
▁whispere	-12.711
▁garlic	-12.711
▁sunglasses	-12.711
▁context	-12.711
▁peanut	-12.711
▁snatch	-12.7111
▁division	-12.7111
▁fluff	-12.7111
▁centur	-12.7111
▁dvd	-12.7111
▁pancake	-12.7111
▁trolley	-12.7112
▁snoop	-12.7112
plex	-12.7112
▁genre	-12.7113
▁element	-12.7114
▁abduction	-12.7114
▁beggar	-12.7114
▁survival	-12.7114
▁urgent	-12.7114
▁announcement	-12.7114
▁entry	-12.7115
sterda	-12.7116
▁youthful	-12.7117
igious	-12.7118
▁sprain	-12.7119
▁powerful	-12.712
▁affection	-12.7121
▁distraction	-12.7121
▁32	-12.7122
mental	-12.7122
▁textbook	-12.7125
vp	-12.7125
▁lsat	-12.7126
▁stitch	-12.7127
▁telemark	-12.7128
▁greener	-12.7129
gghhh	-12.7131
▁unlike	-12.7131
▁dar	-12.7132
▁interact	-12.7133
convenience	-12.7135
▁mich	-12.7135
rugrats	-12.7137
▁easter	-12.7137
▁cabinet	-12.7139
mping	-12.714
▁commute	-12.7151
ncil	-12.7151
▁rig	-12.7152
▁shove	-12.7158
▁pol	-12.7159
▁pill	-12.716
▁mischie	-12.7163
▁experienc	-12.7164
▁te	-12.7168
rown	-12.7168
▁organ	-12.7176
oo	-12.7177
▁supre	-12.7183
▁pitcher	-12.7184
▁bargain	-12.7189
▁laws	-12.7196
▁suspens	-12.7197
▁figurine	-12.72
▁lex	-12.7203
▁dominate	-12.7206
izing	-12.7211
shiver	-12.7215
temporarily	-12.7215
▁pos	-12.7217
▁rub	-12.7225
▁smoothie	-12.723
▁~	-12.7231
▁ava	-12.7232
▁den	-12.7234
try	-12.7245
▁georg	-12.7246
ack	-12.7252
▁compan	-12.7266
▁legend	-12.7269
were	-12.7271
▁haul	-12.7273
▁$3	-12.7278
▁stra	-12.7287
▁sticker	-12.7289
▁confus	-12.7293
▁conscious	-12.7295
alon	-12.7298
▁attitudes	-12.7301
▁scarf	-12.7304
▁esca	-12.7307
▁form	-12.7309
ady	-12.7311
▁recei	-12.7313
▁abc	-12.7317
▁positiv	-12.7323
▁devote	-12.7337
▁micro	-12.7338
▁height	-12.7339
mes	-12.7352
ys	-12.7353
ities	-12.7354
▁ph	-12.7366
▁surve	-12.7368
▁jitsu	-12.737
now	-12.7381
▁nick	-12.7384
air	-12.7387
▁grave	-12.739
▁sooooo	-12.7391
ction	-12.7394
tub	-12.7405
▁pts	-12.7414
▁brace	-12.7423
▁36	-12.7423
ace	-12.7434
see	-12.7436
aur	-12.7437
▁tab	-12.7439
ways	-12.7443
start	-12.7444
▁bodi	-12.7447
yes	-12.7448
essed	-12.745
night	-12.7454
▁burglar	-12.7456
▁damag	-12.7459
reparation	-12.7462
▁pranks	-12.7466
▁trad	-12.7473
take	-12.7501
▁defen	-12.7503
▁resolv	-12.7508
ache	-12.7515
16	-12.7515
rgot	-12.7526
iger	-12.753
with	-12.7536
cycle	-12.7542
surprise	-12.7544
▁dealers	-12.7558
▁mist	-12.7563
mentor	-12.7577
▁dispose	-12.7587
pass	-12.7588
▁doom	-12.7593
▁checks	-12.7594
▁assur	-12.7595
found	-12.761
▁observ	-12.7612
▁forg	-12.7621
▁rick	-12.7625
(	-12.7634
▁recl	-12.7647
▁overeat	-12.7659
yard	-12.766
storm	-12.7661
luc	-12.7663
rica	-12.767
▁busies	-12.7681
ster	-12.7685
▁ka	-12.7685
▁artic	-12.7691
▁racial	-12.7705
▁bean	-12.7715
new	-12.7721
▁cuddl	-12.7726
oid	-12.7727
llar	-12.7731
▁sam	-12.7737
▁sen	-12.774
ht	-12.774
▁clari	-12.7746
warm	-12.7746
▁coll	-12.7751
▁aug	-12.7756
▁rebuil	-12.7778
▁scienti	-12.7791
grass	-12.7795
▁wha	-12.7807
▁led	-12.7815
▁gran	-12.7816
▁bri	-12.7818
▁600	-12.7822
▁loos	-12.783
jitsu	-12.7831
ened	-12.7832
chef	-12.7838
▁fro	-12.7839
▁fold	-12.784
▁cooker	-12.7846
ag	-12.7853
▁rag	-12.7858
arcel	-12.7862
earning	-12.7867
ju	-12.7868
▁excel	-12.7877
eats	-12.7887
▁trim	-12.7896
▁betw	-12.7897
ational	-12.7913
▁kitt	-12.7928
nea	-12.7933
round	-12.7936
worm	-12.7947
▁lion	-12.7948
nour	-12.7949
sters	-12.7953
▁purp	-12.7953
sity	-12.7957
smith	-12.797
easy	-12.7971
ared	-12.7976
gran	-12.7988
▁pros	-12.7988
▁west	-12.799
▁hir	-12.799
wanted	-12.7992
▁numb	-12.7993
▁mari	-12.7995
▁politician	-12.7995
▁folk	-12.8002
▁fate	-12.8002
big	-12.8003
ttle	-12.8007
▁theirs	-12.8018
▁radiat	-12.8022
ner	-12.8022
▁ven	-12.8043
▁graphic	-12.8044
bd	-12.8045
pter	-12.8051
too	-12.8055
▁magn	-12.8058
▁abs	-12.8058
▁af	-12.8066
92	-12.8076
ative	-12.8082
rais	-12.8083
ddy	-12.8085
ately	-12.8089
▁sentiment	-12.809
xious	-12.8096
▁educat	-12.8099
▁instant	-12.811
▁dramatic	-12.811
^	-12.811
▁assault	-12.811
▁bridesmaid	-12.811
▁cozumel	-12.811
▁earthquake	-12.811
▁hazard	-12.811
▁metallica	-12.811
▁privilege	-12.811
▁turmoil	-12.811
▁enlighten	-12.811
▁charlotte	-12.811
▁resolution	-12.811
▁cartwheel	-12.811
▁greyhou	-12.811
▁booze	-12.811
▁resilien	-12.811
▁tongue	-12.811
▁nonstop	-12.811
▁defensive	-12.811
▁consci	-12.8111
▁shoplift	-12.8111
▁shriek	-12.8111
▁exhort	-12.8111
▁digestive	-12.8111
▁grandchildren	-12.8111
▁crunch	-12.8111
ctica	-12.8111
▁automatically	-12.8111
▁condens	-12.8111
▁dissect	-12.8111
10	-12.8111
▁notebook	-12.8111
▁toenail	-12.8111
▁generator	-12.8111
▁nutrition	-12.8112
▁artistic	-12.8112
▁domino	-12.8112
▁fiber	-12.8112
▁tabby	-12.8113
▁tumor	-12.8113
▁cupboard	-12.8113
▁traumatiz	-12.8114
▁giggling	-12.8114
▁disagreement	-12.8114
▁busier	-12.8114
▁drool	-12.8114
▁jitter	-12.8115
▁camry	-12.8116
▁overdue	-12.8116
bama	-12.8116
▁approve	-12.8116
▁patterns	-12.8118
▁fluid	-12.8118
▁shovel	-12.8118
▁tehre	-12.812
▁taller	-12.8123
▁showe	-12.8124
▁whiske	-12.8126
▁breakin	-12.8126
▁remake	-12.8127
▁overindulge	-12.813
▁sedan	-12.8131
▁peru	-12.8132
▁unnerving	-12.8133
▁nba	-12.8133
▁brick	-12.8133
▁weakness	-12.8134
▁hermit	-12.8136
early	-12.8136
▁selection	-12.8137
▁hiv	-12.8138
▁bud	-12.8141
0-50	-12.8143
▁bugger	-12.8143
▁dunk	-12.8146
▁genero	-12.8149
▁feast	-12.8156
ulous	-12.8168
▁misplace	-12.8172
▁shutter	-12.8172
▁desert	-12.8176
▁flashbacks	-12.8179
▁investigat	-12.8179
▁tenant	-12.8184
itis	-12.819
▁stack	-12.8191
▁150	-12.8192
star	-12.8196
▁clic	-12.8196
q	-12.8199
good	-12.8209
▁reall	-12.8212
surance	-12.8227
▁themself	-12.823
▁recite	-12.8253
lley	-12.8253
▁braver	-12.8268
▁tracks	-12.8272
▁connections	-12.8276
pent	-12.8278
tte	-12.828
had	-12.828
▁sicken	-12.8288
agon	-12.8292
▁getaway	-12.8312
▁pat	-12.8317
▁tablet	-12.8321
▁sca	-12.833
itness	-12.8332
▁rescu	-12.8337
ering	-12.836
▁produce	-12.8377
morrow	-12.8378
▁makeover	-12.8379
▁terrifie	-12.8383
▁reserve	-12.8389
aching	-12.8392
▁eeri	-12.8396
▁filling	-12.8404
sia	-12.8406
zel	-12.8414
ched	-12.8435
▁rise	-12.8436
▁jon	-12.844
hl	-12.8442
▁comf	-12.8445
hard	-12.8457
ba	-12.8457
▁ooooh	-12.846
25	-12.8463
▁dripp	-12.8471
aren	-12.8479
▁striv	-12.8482
▁sav	-12.8483
▁disc	-12.8497
port	-12.8505
▁27	-12.851
ham	-12.8516
tty	-12.8525
▁canal	-12.8527
▁dreaming	-12.8533
shingle	-12.8533
▁relaxe	-12.8567
▁bab	-12.8575
ilt	-12.8577
▁bush	-12.858
ray	-12.8598
▁typ	-12.861
▁bil	-12.8613
▁socializ	-12.8618
▁pri	-12.862
▁checke	-12.8638
rified	-12.8648
▁tray	-12.8656
▁tourist	-12.8658
float	-12.8663
▁sel	-12.8664
▁financ	-12.8666
▁fir	-12.8669
▁memoriz	-12.8675
ves	-12.8677
▁perf	-12.8677
▁pointer	-12.8682
▁glue	-12.8683
▁groom	-12.8684
▁locks	-12.8692
▁predic	-12.8692
rise	-12.8695
▁honored	-12.871
fall	-12.8712
compress	-12.8721
opath	-12.8736
res	-12.8745
▁dough	-12.8757
street	-12.8758
living	-12.8766
▁believ	-12.8773
▁swo	-12.8775
▁invi	-12.8775
tchy	-12.8776
ood	-12.8779
scar	-12.8789
cially	-12.8797
cent	-12.8805
rc	-12.881
ology	-12.8811
bic	-12.8818
▁stan	-12.8821
▁pres	-12.8823
uge	-12.8828
lift	-12.8831
usting	-12.8845
▁irr	-12.8847
iki	-12.8851
▁stil	-12.8855
▁fre	-12.8856
▁combine	-12.8857
logist	-12.8858
▁occur	-12.8859
▁chats	-12.886
test	-12.8864
▁loop	-12.8864
hour	-12.8867
▁tuck	-12.8875
▁luxuri	-12.8881
▁merge	-12.8882
▁gradu	-12.8883
▁mat	-12.8884
▁whew	-12.8892
antly	-12.8899
▁180	-12.8906
erable	-12.8908
eligi	-12.893
▁frusterat	-12.8932
▁vale	-12.8932
ou	-12.8942
▁hyp	-12.8943
▁restart	-12.8953
▁dramas	-12.8955
unk	-12.8958
ose	-12.8962
▁z	-12.8967
▁squat	-12.8977
60	-12.8997
lar	-12.9002
▁consum	-12.9005
ool	-12.9006
eat	-12.9008
ume	-12.9012
▁pursue	-12.903
▁collaps	-12.903
▁spice	-12.9045
▁boo	-12.905
▁sl	-12.9054
common	-12.9071
wood	-12.9075
wi	-12.9082
▁restore	-12.9086
▁feature	-12.9106
▁barn	-12.9107
▁critter	-12.9107
▁sna	-12.9114
▁cast	-12.9116
ings	-12.9121
ats	-12.9126
▁spic	-12.9138
▁lash	-12.9145
▁forgett	-12.916
ught	-12.9163
ars	-12.9164
▁impatien	-12.9164
▁apologiz	-12.9166
quer	-12.9168
▁era	-12.9169
▁linger	-12.917
ti	-12.9171
▁surround	-12.9174
▁dung	-12.9174
felt	-12.9175
▁vers	-12.918
▁flee	-12.9186
uke	-12.9192
oodle	-12.9199
vernment	-12.9203
▁immediate	-12.9212
estimate	-12.9221
▁horri	-12.9221
▁$4	-12.9221
▁anarchy	-12.9221
▁congradulations	-12.9221
▁cuisine	-12.9221
▁eliminat	-12.9221
▁endeavor	-12.9221
▁instagram	-12.9221
▁michigan	-12.9221
▁nashville	-12.9221
▁nutrient	-12.9221
▁phrase	-12.9221
▁profusely	-12.9221
▁vaccine	-12.9221
▁vietnam	-12.9221
▁scotland	-12.9221
▁scooter	-12.9221
▁airbnb	-12.9221
▁international	-12.9221
▁jeopard	-12.9221
▁keychain	-12.9221
▁lmao	-12.9221
▁nonetheless	-12.9221
▁digital	-12.9221
▁mickey	-12.9221
▁powder	-12.9221
▁wildfire	-12.9221
▁recession	-12.9221
▁knives	-12.9222
▁method	-12.9222
▁representative	-12.9222
▁deadlift	-12.9222
▁raptor	-12.9222
▁unconditional	-12.9222
▁probation	-12.9222
▁capture	-12.9222
▁roster	-12.9222
▁gentle	-12.9222
▁volcan	-12.9222
▁reveal	-12.9222
▁favour	-12.9222
▁devour	-12.9223
▁lantern	-12.9223
▁superior	-12.9223
▁str	-12.9223
▁cheeseburger	-12.9223
▁quarterback	-12.9223
▁borther	-12.9223
▁outpour	-12.9223
▁beleive	-12.9224
▁victory	-12.9224
▁twinkie	-12.9224
▁werewolf	-12.9224
▁89	-12.9225
▁chaos	-12.9225
▁unload	-12.9226
▁headlight	-12.9226
▁gutted	-12.9227
▁polar	-12.9227
▁btw	-12.9227
▁jones	-12.9227
▁urinat	-12.9228
▁adjustment	-12.9228
hawk	-12.9229
▁druggie	-12.923
▁brady	-12.9232
▁palp	-12.9234
▁sympath	-12.9235
▁efficient	-12.9235
kansa	-12.9235
establ	-12.9239
▁tramp	-12.9243
▁theme	-12.9243
rks	-12.9244
▁charm	-12.9244
▁frown	-12.9249
▁crisp	-12.9252
▁terrier	-12.9253
▁worthless	-12.9255
▁embarrasing	-12.9258
▁boomer	-12.926
▁permit	-12.9261
▁crie	-12.9267
▁retreat	-12.9269
▁coop	-12.9273
▁quicker	-12.9275
▁spoon	-12.9276
▁luch	-12.928
▁ramp	-12.9285
▁pitt	-12.9287
▁defeat	-12.9289
uddle	-12.9293
▁notori	-12.9296
▁champions	-12.9297
▁renovat	-12.9298
▁ot	-12.9301
▁conce	-12.9303
com	-12.9306
▁poster	-12.9307
▁libera	-12.931
▁surroundings	-12.9312
▁mainten	-12.9313
▁mmmm	-12.9318
▁intend	-12.9318
▁rental	-12.932
eep	-12.932
▁props	-12.9324
▁hunger	-12.9325
afari	-12.9326
face	-12.9334
▁pirate	-12.9334
▁attraction	-12.9346
▁woohooo	-12.9347
▁brisk	-12.9349
ze	-12.935
▁sweater	-12.9352
gs	-12.9356
▁stall	-12.9359
▁laser	-12.9361
▁wrapping	-12.9367
affe	-12.9369
▁grosses	-12.937
▁nerv	-12.9372
sit	-12.9374
▁manual	-12.9375
▁stomp	-12.9378
▁rodeo	-12.938
ppines	-12.938
lence	-12.9381
▁legit	-12.9384
tv	-12.9388
▁welcom	-12.9391
▁wel	-12.9395
▁stunt	-12.9401
▁collapse	-12.9416
firend	-12.9418
▁exten	-12.9419
▁farmer	-12.9422
▁occasional	-12.9425
▁reputa	-12.9428
▁sorrow	-12.9431
▁rodent	-12.9432
▁snot	-12.9439
▁appears	-12.9445
bout	-12.9449
▁desp	-12.9452
opped	-12.9454
▁spaces	-12.9461
redo	-12.9461
ease	-12.9462
▁ther	-12.9466
▁predict	-12.9469
▁wit	-12.947
▁define	-12.9475
▁shu	-12.9477
ozy	-12.9486
fic	-12.9499
▁chok	-12.9502
▁primar	-12.9504
▁kindergar	-12.9505
▁ours	-12.951
together	-12.9522
▁enthusiast	-12.9526
▁whip	-12.9528
▁sane	-12.9529
ran	-12.9539
eye	-12.9542
che	-12.9546
▁chev	-12.9551
ral	-12.9551
▁elect	-12.9566
▁$30	-12.9567
▁safer	-12.957
ele	-12.9574
▁sri	-12.9574
▁fil	-12.9583
▁crafts	-12.9585
mba	-12.9586
▁cra	-12.9593
▁scamp	-12.9598
jama	-12.9603
▁claw	-12.9604
▁uncles	-12.9609
mind	-12.9614
ters	-12.9627
▁definit	-12.963
▁equi	-12.9631
car	-12.9639
cue	-12.9656
▁ve	-12.9663
▁locate	-12.9673
luck	-12.9678
▁attempts	-12.9685
hini	-12.9685
rated	-12.9687
▁showers	-12.9692
fil	-12.9697
▁hairs	-12.97
▁mistreat	-12.97
trum	-12.9701
rella	-12.9716
ames	-12.9721
▁$	-12.9725
imply	-12.9726
▁whi	-12.9743
hallow	-12.9748
▁iron	-12.9748
▁ache	-12.9752
wilder	-12.9755
▁aggravate	-12.9756
▁nausea	-12.9758
sitive	-12.9762
▁paradi	-12.9769
lings	-12.9786
▁ce	-12.9787
▁suite	-12.9788
▁vac	-12.9791
▁jets	-12.9795
og	-12.9805
grow	-12.9808
▁flak	-12.9811
ho	-12.9813
▁unrel	-12.9815
▁rivalr	-12.9816
vo	-12.9828
▁hero	-12.9834
▁wasps	-12.9838
called	-12.9843
▁everyon	-12.9845
▁bestfriend	-12.9857
▁explor	-12.9858
▁arch	-12.9859
?	-12.9861
▁turne	-12.9866
▁growl	-12.9872
rito	-12.988
ix	-12.9884
▁pun	-12.9889
▁seam	-12.9896
▁char	-12.9903
▁bulli	-12.9905
rtive	-12.9914
▁cod	-12.9914
▁verb	-12.9916
▁jacks	-12.9924
cuba	-12.9924
lucky	-12.9935
▁visitor	-12.9937
▁nes	-12.9943
ops	-12.9954
ms	-12.9954
nos	-12.9968
▁mailed	-12.997
▁terrifi	-12.9972
▁sew	-12.9981
ork	-12.9993
▁gala	-13.0005
▁deni	-13.0012
ndy	-13.002
ab	-13.0027
▁programme	-13.0027
▁borrowe	-13.0034
▁uninterest	-13.0051
br	-13.0057
▁profession	-13.0067
ona	-13.0074
▁cramm	-13.0094
▁paralyz	-13.0108
▁hail	-13.0112
mail	-13.0113
▁copie	-13.0123
kind	-13.0133
▁cer	-13.0136
▁quote	-13.0146
▁fess	-13.0151
paint	-13.0166
hat	-13.0177
discipline	-13.0181
wide	-13.0184
digestion	-13.0185
▁stunn	-13.0197
wings	-13.0212
iled	-13.0216
▁apolog	-13.0217
▁integr	-13.0226
pay	-13.0228
ide	-13.0233
▁minds	-13.0238
ox	-13.0251
▁realise	-13.0253
▁sling	-13.0255
▁mort	-13.0263
▁gui	-13.0269
▁spar	-13.0274
lated	-13.0277
ka	-13.0283
▁revers	-13.0286
story	-13.0289
lief	-13.0293
rupt	-13.0294
▁spoile	-13.0299
▁moist	-13.0305
oul	-13.0306
▁mic	-13.0312
acked	-13.0328
▁temp	-13.0328
▁becom	-13.0343
▁obs	-13.0345
▁spil	-13.0345
400	-13.0347
mart	-13.0356
mate	-13.0374
▁fab	-13.0381
really	-13.0392
orches	-13.0394
artial	-13.0399
▁pois	-13.0409
▁dissapoint	-13.0417
▁screens	-13.0425
days	-13.0431
talia	-13.0439
ola	-13.0439
▁grip	-13.0442
sive	-13.0442
first	-13.0448
▁retro	-13.0448
▁unbelievabl	-13.0449
respectful	-13.0452
▁prince	-13.0453
▁consol	-13.0453
stones	-13.0459
▁lil	-13.0459
proved	-13.0464
▁troph	-13.0465
▁straw	-13.0469
▁champ	-13.0471
▁narcissist	-13.0471
{	-13.0471
▁criminology	-13.0471
▁emerald	-13.0471
▁entrepreneur	-13.0471
▁euthanize	-13.0471
▁fatigue	-13.0471
▁infomercial	-13.0471
▁kangaroo	-13.0471
▁labrador	-13.0471
▁paramedic	-13.0471
▁pessimis	-13.0471
▁satellite	-13.0471
▁seizure	-13.0471
▁spontaneous	-13.0471
▁intervention	-13.0471
▁subaru	-13.0471
▁eclipse	-13.0471
▁sequel	-13.0471
▁apprehensi	-13.0471
▁ethic	-13.0471
▁xmas	-13.0471
▁khaki	-13.0471
▁veteran	-13.0471
▁gadget	-13.0471
▁1980	-13.0471
▁seduc	-13.0471
▁domestic	-13.0472
▁magician	-13.0472
▁hulu	-13.0472
▁chapter	-13.0472
▁cigar	-13.0472
▁pigeon	-13.0472
▁arkansa	-13.0472
▁pamper	-13.0472
ffle	-13.0472
▁bookcase	-13.0472
▁associate	-13.0473
▁injuri	-13.0473
▁adulthood	-13.0473
▁offensive	-13.0473
▁intimate	-13.0473
▁chopp	-13.0473
▁whistl	-13.0474
▁2015	-13.0474
▁alternat	-13.0474
▁collage	-13.0475
▁narrow	-13.0475
▁encouragement	-13.0475
▁admission	-13.0475
▁invasi	-13.0475
▁offense	-13.0475
▁clingy	-13.0475
deathnote	-13.0476
▁touchdown	-13.0477
▁organize	-13.0477
▁85	-13.0477
▁alteration	-13.0477
maharlika	-13.0477
▁remark	-13.0479
▁poe	-13.0482
romance	-13.0482
▁splint	-13.0483
▁combo	-13.0483
wash	-13.0483
uly	-13.0484
▁yoyo	-13.0484
▁evaluat	-13.0488
▁ahhhh	-13.0488
▁tum	-13.049
crib	-13.049
▁plum	-13.0491
▁assign	-13.0492
▁gua	-13.0497
▁harvest	-13.0497
▁festiv	-13.0498
▁recharge	-13.0503
▁slob	-13.0503
▁invitation	-13.0505
ville	-13.0508
▁chief	-13.051
▁blatant	-13.0512
▁33	-13.0516
▁terror	-13.0518
▁overreacting	-13.0518
▁ewwww	-13.0519
▁sme	-13.052
▁persu	-13.0524
▁leaf	-13.0524
▁fift	-13.0537
▁burp	-13.0539
▁nig	-13.0541
amic	-13.0541
▁distress	-13.0541
▁hoard	-13.0543
▁polish	-13.0545
▁14-	-13.0546
irsty	-13.0547
▁hbu	-13.0553
▁disheartening	-13.056
▁billion	-13.0565
wel	-13.057
▁outgrow	-13.0572
▁13-	-13.0576
ntial	-13.058
▁sexual	-13.0587
▁detr	-13.0589
▁exceed	-13.059
art	-13.0592
▁wisely	-13.0593
▁quad	-13.0594
▁unknow	-13.0595
▁soci	-13.0598
▁corporat	-13.0607
very	-13.061
▁planner	-13.0611
▁demons	-13.0612
▁net	-13.0615
▁maze	-13.0618
▁hunter	-13.0618
▁pony	-13.0624
▁troop	-13.0635
▁tres	-13.065
▁swings	-13.0653
shirts	-13.0655
94	-13.0655
empt	-13.0663
▁amus	-13.0665
▁tithe	-13.0666
▁stings	-13.0668
▁recycl	-13.0675
▁slamm	-13.0677
▁performer	-13.0678
lead	-13.068
▁mcl	-13.0686
▁swing	-13.0686
▁moron	-13.0688
0+	-13.0692
xed	-13.0694
zzy	-13.0698
▁zombies	-13.0701
▁hum	-13.0706
▁devot	-13.071
▁tshirts	-13.0715
▁chee	-13.0723
irma	-13.0724
prompt	-13.0729
▁soo	-13.0738
▁needy	-13.0739
▁abo	-13.0742
tolera	-13.0752
▁separat	-13.0758
ravel	-13.0759
▁reckless	-13.0763
ir	-13.0771
▁detect	-13.0771
**	-13.0772
▁costly	-13.0778
sippi	-13.0786
▁dak	-13.0788
und	-13.0789
▁lining	-13.0792
▁hoo	-13.0802
hernia	-13.0805
ision	-13.0806
oscop	-13.0812
▁stepmo	-13.0817
thank	-13.0823
lost	-13.0832
▁overreact	-13.0861
-60	-13.0864
▁avid	-13.0865
▁quot	-13.0866
self	-13.0872
▁tinie	-13.0887
▁uncou	-13.0888
ual	-13.0898
▁macb	-13.09
▁gri	-13.0903
▁shore	-13.0905
ender	-13.0906
▁terrib	-13.0911
▁developer	-13.0912
▁kara	-13.0914
▁peck	-13.0919
exting	-13.0936
bbing	-13.0938
▁queue	-13.0938
▁luxur	-13.0943
▁stash	-13.0945
▁rating	-13.0948
▁port	-13.0958
▁memorab	-13.0961
▁alwas	-13.0967
shipped	-13.097
▁roomates	-13.097
▁sack	-13.0972
▁germ	-13.0975
▁crust	-13.0976
edition	-13.0983
▁passions	-13.0983
▁contribute	-13.0984
▁shadows	-13.0985
▁barne	-13.0997
ption	-13.0999
▁websites	-13.1001
coin	-13.1013
▁doggo	-13.1017
▁juli	-13.1017
went	-13.1026
cute	-13.1032
boyfriend	-13.1036
▁goo	-13.1038
▁gener	-13.104
▁flick	-13.1042
ern	-13.1045
sa	-13.1045
▁possess	-13.1056
som	-13.106
llish	-13.1065
▁drum	-13.1068
tional	-13.1071
▁meetup	-13.1077
▁retrace	-13.1078
▁agre	-13.1079
▁embar	-13.1083
visor	-13.1091
▁divorc	-13.1096
rt	-13.1098
▁examin	-13.1126
▁grey	-13.1128
▁importan	-13.113
umn	-13.1139
▁hm	-13.1141
inted	-13.1144
▁blur	-13.1159
▁debat	-13.1161
▁scuff	-13.1163
ump	-13.1164
▁gul	-13.1164
rats	-13.1169
▁diver	-13.1171
ccomplished	-13.1174
▁overthink	-13.118
▁ignoran	-13.1189
▁fatal	-13.1193
▁unsc	-13.1195
rought	-13.1216
▁limits	-13.1221
▁appointments	-13.1224
ything	-13.1225
▁grosse	-13.1226
rious	-13.1229
lding	-13.1235
dle	-13.124
▁glu	-13.1243
▁rewatch	-13.1247
udge	-13.1254
actu	-13.1269
appy	-13.1271
-5	-13.1286
your	-13.1287
aq	-13.1293
▁float	-13.1293
▁wounds	-13.1294
has	-13.1297
unt	-13.1302
oxi	-13.131
ugar	-13.1314
dent	-13.1317
▁eater	-13.1324
▁facil	-13.1327
▁chir	-13.1333
god	-13.1338
▁truthful	-13.1344
this	-13.1347
scare	-13.1347
▁tommor	-13.1348
▁ent	-13.1365
run	-13.1371
rp	-13.1383
po	-13.1386
anna	-13.1387
▁gro	-13.139
▁custom	-13.1394
▁sip	-13.1395
gg	-13.1422
▁expos	-13.1434
sung	-13.1435
▁dial	-13.1437
ifying	-13.1444
case	-13.1446
▁possib	-13.1449
him	-13.1453
finished	-13.1455
▁portabl	-13.1482
ooked	-13.1501
▁peppers	-13.1502
▁pian	-13.1504
poke	-13.1509
▁bog	-13.152
▁unus	-13.1529
▁consult	-13.1535
▁psyche	-13.1541
▁sens	-13.1552
sicle	-13.1553
40	-13.1553
14	-13.1561
▁initiat	-13.1561
ised	-13.1562
▁followe	-13.1562
ota	-13.1567
▁propert	-13.1573
bad	-13.1579
eth	-13.1579
▁dys	-13.1581
▁stands	-13.1581
▁cd	-13.1583
▁somedays	-13.1602
▁alf	-13.1608
conscious	-13.1611
▁relocate	-13.1613
▁hers	-13.1616
#	-13.1626
pher	-13.1632
▁enable	-13.1643
bra	-13.1643
ina	-13.1653
▁ver	-13.1655
ppy	-13.1664
ear	-13.1668
▁bumb	-13.1669
▁threat	-13.1674
▁blu	-13.1676
▁guns	-13.1678
▁mor	-13.1684
rus	-13.169
▁awwwww	-13.1694
▁pil	-13.1695
nted	-13.1697
▁hinder	-13.17
den	-13.17
daughter	-13.1705
known	-13.1707
▁scorer	-13.1712
▁grea	-13.1719
▁peer	-13.1719
▁scaredy	-13.1721
▁bay	-13.1721
▁adventur	-13.1722
▁cram	-13.1725
▁responsibl	-13.1726
mped	-13.1729
▁crum	-13.173
hilar	-13.1736
▁woohoo	-13.1738
ayed	-13.1752
job	-13.1752
▁brows	-13.1757
bear	-13.1763
rted	-13.1767
ether	-13.1767
▁repli	-13.1767
▁55	-13.1768
▁aut	-13.1781
▁slacker	-13.1784
▁ref	-13.1784
▁slid	-13.1791
died	-13.1796
▁manner	-13.1801
yeah	-13.1805
rit	-13.1806
▁fulfil	-13.1808
secure	-13.1811
fected	-13.1814
▁tile	-13.1815
void	-13.1815
▁breez	-13.1821
sible	-13.1821
mature	-13.1822
▁brake	-13.1824
logy	-13.1824
▁cruis	-13.1839
▁surrounding	-13.1845
▁spike	-13.1847
▁detent	-13.1849
▁embarass	-13.1862
▁carrie	-13.1872
▁mugg	-13.1877
▁physi	-13.1879
▁accura	-13.1882
▁core	-13.1883
full	-13.1884
▁othe	-13.1885
▁holdi	-13.1886
▁capab	-13.1889
▁chug	-13.1889
pture	-13.1892
▁noooo	-13.1892
▁abduct	-13.1894
ilia	-13.1895
_	-13.19
▁conclusion	-13.19
▁excursion	-13.19
▁insomnia	-13.19
▁manhattan	-13.19
▁mcgregor	-13.19
▁occassion	-13.19
▁plagiari	-13.19
▁productivity	-13.19
▁subordinate	-13.19
▁syracuse	-13.19
▁advertise	-13.19
▁beneficial	-13.19
curricul	-13.19
▁dissapear	-13.19
▁envelope	-13.19
▁execut	-13.19
▁interpret	-13.19
▁nevada	-13.19
▁tremendous	-13.19
▁unicorn	-13.19
▁intricate	-13.19
▁suicid	-13.19
▁tunnel	-13.19
▁alpha	-13.19
▁expedition	-13.19
▁capital	-13.19
▁fingernail	-13.19
▁widow	-13.19
▁plague	-13.19
▁sylvest	-13.19
▁crucial	-13.19
▁dachs	-13.19
▁vendor	-13.19
▁rehearse	-13.19
▁appendi	-13.19
▁android	-13.19
▁obligat	-13.19
▁disrupt	-13.19
▁powerlift	-13.19
▁southeast	-13.1901
▁blueprint	-13.1901
▁335	-13.1901
▁tomorro	-13.1901
▁categories	-13.1901
▁$150	-13.1901
uccin	-13.1901
▁empower	-13.1901
▁scheme	-13.1901
▁improper	-13.1901
▁restoration	-13.1901
▁glutton	-13.1901
▁poptart	-13.1901
▁autograph	-13.1901
▁abhor	-13.1901
▁charitable	-13.1902
▁exclusi	-13.1902
diatri	-13.1902
▁bryan	-13.1902
▁2008	-13.1902
▁nervewracking	-13.1902
▁bundle	-13.1903
▁kelly	-13.1903
▁swoop	-13.1904
▁neigh	-13.1904
▁managment	-13.1906
▁freelance	-13.1906
▁overdraw	-13.1907
ike	-13.1907
▁raven	-13.1908
▁wiht	-13.1908
▁renovation	-13.1909
▁phish	-13.191
2-3	-13.1911
▁fixture	-13.1912
▁headset	-13.1913
▁motivating	-13.1915
▁alumn	-13.1915
▁notification	-13.1916
▁franc	-13.1919
▁unsettling	-13.1919
▁shooter	-13.1923
abies	-13.1924
▁stamp	-13.1924
quid	-13.1925
▁discard	-13.1925
▁disturbed	-13.1927
▁batch	-13.1929
▁slur	-13.1929
▁scammer	-13.193
▁nickel	-13.1931
▁thrive	-13.1931
▁47	-13.1932
▁retain	-13.1932
▁modern	-13.1935
▁stutter	-13.1935
script	-13.1935
▁fright	-13.1936
▁spani	-13.1938
mar	-13.1947
▁fertil	-13.1949
▁cir	-13.1949
▁tele	-13.195
▁pregnanc	-13.1951
ature	-13.1953
▁toe	-13.1954
▁gir	-13.1955
ritual	-13.1957
▁excess	-13.1959
▁corps	-13.1961
▁charming	-13.1962
wer	-13.1963
describe	-13.1967
▁shred	-13.1968
▁peach	-13.1973
▁blade	-13.1973
▁adviser	-13.1975
▁norm	-13.1975
▁relations	-13.1982
▁belgi	-13.1982
▁techniques	-13.1983
▁betraye	-13.1985
▁coca	-13.1987
low	-13.1987
ropho	-13.1987
▁controll	-13.1989
▁centr	-13.199
▁goodluck	-13.1992
▁steer	-13.1994
▁hamm	-13.1996
▁mourn	-13.1997
▁antho	-13.2005
▁tolerat	-13.2006
evoke	-13.2007
▁puck	-13.2009
lined	-13.2013
▁cps	-13.2018
tress	-13.2019
nds	-13.202
▁reno	-13.2022
nera	-13.2025
▁chor	-13.2028
▁needle	-13.2035
toxic	-13.2039
nts	-13.204
▁preview	-13.2041
▁brad	-13.2043
fu	-13.2045
▁tender	-13.2045
▁clerk	-13.2052
▁muti	-13.2056
▁arrange	-13.2064
▁stylis	-13.2073
▁pupper	-13.2075
▁belonging	-13.2082
▁remov	-13.2085
▁interst	-13.2085
▁cleans	-13.2085
vious	-13.2088
rcial	-13.209
urned	-13.2101
▁bagg	-13.2105
▁urge	-13.2108
▁litl	-13.2111
▁wri	-13.2112
inds	-13.2121
▁fulfilled	-13.2123
uce	-13.2124
cable	-13.2132
omed	-13.2134
▁packet	-13.2134
▁gee	-13.214
▁sitter	-13.2144
▁asset	-13.2145
▁casual	-13.2154
person	-13.2156
▁chuck	-13.2159
▁wage	-13.2162
▁trou	-13.2163
▁announc	-13.2165
▁choppe	-13.2168
▁necessit	-13.217
eal	-13.2183
ces	-13.2186
▁por	-13.22
▁delet	-13.2212
▁reel	-13.2212
ming	-13.2219
there	-13.2228
▁goose	-13.2231
▁cus	-13.2237
rist	-13.224
▁littering	-13.2242
▁digestion	-13.2242
▁cooperati	-13.2244
▁desires	-13.2254
ins	-13.2255
▁bonding	-13.2255
▁addicting	-13.2257
▁satur	-13.2261
▁girlfi	-13.2264
teria	-13.2266
▁compensate	-13.2266
▁scent	-13.227
ple	-13.227
▁bl	-13.2276
▁commut	-13.2279
▁consulta	-13.2279
▁tir	-13.2288
ggling	-13.2294
▁ad	-13.2307
▁fend	-13.2309
▁tan	-13.2313
▁ooo	-13.2317
▁dea	-13.2324
family	-13.2326
▁dep	-13.2331
ickle	-13.234
▁gf	-13.2351
nounce	-13.2354
cho	-13.2354
sting	-13.2356
▁eras	-13.2365
stand	-13.2368
▁rod	-13.2379
▁courts	-13.2386
ength	-13.2386
pens	-13.2389
snt	-13.2393
▁scamm	-13.2396
ef	-13.2403
enetic	-13.241
▁kno	-13.2411
inhabita	-13.2413
▁territor	-13.2416
ws	-13.2418
vinci	-13.2426
come	-13.243
▁auth	-13.2431
▁restara	-13.2431
▁asse	-13.2438
how	-13.2439
vous	-13.2441
▁cent	-13.2449
▁scorch	-13.245
▁webs	-13.2468
▁tournem	-13.2468
▁appreciat	-13.2496
▁audit	-13.2497
▁overb	-13.2497
gical	-13.2498
class	-13.251
▁husbands	-13.251
gains	-13.2527
▁grat	-13.2534
check	-13.2544
▁disguise	-13.2562
chose	-13.257
lumin	-13.2573
pp	-13.2573
world	-13.2575
iment	-13.2579
▁hes	-13.2597
▁opene	-13.2597
▁bald	-13.2608
▁snuggl	-13.2609
osp	-13.2618
rced	-13.2632
▁papa	-13.2641
xo	-13.2647
▁@	-13.266
arent	-13.2666
▁bind	-13.2667
▁subst	-13.2685
ress	-13.2697
ulgar	-13.2697
vis	-13.2706
▁forgott	-13.2709
▁glor	-13.2709
cream	-13.271
▁pod	-13.2712
▁bedtime	-13.2713
attle	-13.2718
▁ty	-13.2722
▁mailm	-13.2724
▁crep	-13.2728
▁explaining	-13.2732
▁gag	-13.2735
ik	-13.2735
ucks	-13.2755
joyed	-13.2758
cation	-13.2768
▁reduce	-13.2778
▁tee	-13.2779
▁inflat	-13.2781
▁views	-13.2783
▁ke	-13.2784
body	-13.2798
▁consist	-13.2809
▁athletics	-13.2809
▁snor	-13.2829
lute	-13.2834
▁insur	-13.284
▁insight	-13.2854
▁disgu	-13.2855
agen	-13.2874
▁muster	-13.2885
▁unbe	-13.2894
partner	-13.29
▁enthusias	-13.29
mom	-13.29
rned	-13.2906
money	-13.2914
▁situ	-13.2914
▁weary	-13.2926
pse	-13.2926
illion	-13.2941
▁blink	-13.2945
perfection	-13.2952
▁nois	-13.2954
cre	-13.2959
appreciated	-13.2968
▁wil	-13.298
▁settl	-13.2983
turk	-13.2985
ella	-13.2989
stop	-13.2996
zing	-13.3004
01	-13.3007
▁winds	-13.3007
▁abus	-13.301
atio	-13.301
name	-13.3013
▁horrifi	-13.3014
hanger	-13.3026
friends	-13.3028
imp	-13.3033
▁mus	-13.3051
control	-13.306
service	-13.3067
▁vir	-13.3083
wise	-13.3084
ingly	-13.3086
hi	-13.3088
fill	-13.3091
▁gradua	-13.3096
ncy	-13.3123
▁dec	-13.3123
lax	-13.3127
liness	-13.3141
ded	-13.3144
tension	-13.3146
▁10-	-13.3155
gy	-13.3156
uarant	-13.3162
▁brew	-13.3162
▁passer	-13.3165
ua	-13.3167
▁op	-13.317
dose	-13.3178
limit	-13.3181
▁nurtur	-13.3181
▁construct	-13.3185
▁harve	-13.3194
any	-13.3195
mouth	-13.3201
ulf	-13.3205
▁righ	-13.3213
▁sadde	-13.3225
loud	-13.3235
welcome	-13.3238
▁meets	-13.3241
dress	-13.3244
▁tomor	-13.3252
tely	-13.3256
▁recogniz	-13.3257
gi	-13.3258
raft	-13.3267
tin	-13.3274
borrowing	-13.3277
shield	-13.3277
tooth	-13.3277
violin	-13.3279
▁explo	-13.3284
buster	-13.3292
quar	-13.3299
believable	-13.3303
ones	-13.3304
▁cooperat	-13.3309
demp	-13.331
▁teri	-13.3311
▁bor	-13.3315
nab	-13.3316
trustworthy	-13.3321
wait	-13.3329
books	-13.3345
▁restar	-13.3348
phia	-13.3357
▁emot	-13.336
▁bio	-13.3364
▁preach	-13.3367
▁refer	-13.3367
▁russel	-13.3386
cal	-13.3394
▁insecurit	-13.3395
elled	-13.3399
▁repain	-13.3406
▁faint	-13.3415
allows	-13.3416
▁mans	-13.3417
▁140	-13.3418
tly	-13.3434
▁deed	-13.3436
being	-13.3438
food	-13.3441
bow	-13.3446
▁prod	-13.345
bump	-13.3452
▁flashback	-13.3452
▁champion	-13.3452
ase	-13.3458
bell	-13.3459
astic	-13.3461
▁bf	-13.3462
mbling	-13.3462
homa	-13.3463
▁favorit	-13.3467
because	-13.3478
ell	-13.3479
▁chris	-13.3487
hes	-13.3488
raunt	-13.349
▁160	-13.3493
▁intelligen	-13.3502
anned	-13.3511
lapse	-13.3513
▁foreclos	-13.3514
▁declin	-13.3516
▁blush	-13.3518
▁intimidat	-13.3519
▁porta	-13.352
lerate	-13.3523
▁organis	-13.3523
▁pret	-13.3523
oic	-13.3535
▁notices	-13.3536
▁miserabl	-13.3543
tter	-13.3546
▁littl	-13.355
▁irrita	-13.3551
▁flatter	-13.3556
mark	-13.3559
▁milli	-13.356
▁clubbin	-13.3563
▁footbal	-13.3563
▁doc	-13.3566
▁euro	-13.3567
]	-13.3567
▁<	-13.3567
▁cosmetic	-13.3567
▁deodor	-13.3567
▁enchiladas	-13.3567
▁fajitas	-13.3567
▁friggin	-13.3567
▁hooligan	-13.3567
▁horrendous	-13.3567
▁millennial	-13.3567
▁opponent	-13.3567
▁ostrich	-13.3567
▁podcast	-13.3567
▁repetitive	-13.3567
▁resturant	-13.3567
▁rsvp	-13.3567
▁scumbag	-13.3567
▁uhmnn	-13.3567
▁village	-13.3567
firefighter	-13.3567
▁escort	-13.3567
▁malicious	-13.3567
▁treadmill	-13.3567
▁accommodat	-13.3567
▁crippl	-13.3567
▁obtain	-13.3567
▁comparison	-13.3567
▁memphis	-13.3567
▁depriv	-13.3567
▁ravage	-13.3567
▁snicker	-13.3567
▁gordita	-13.3567
▁rekindle	-13.3567
▁biscuit	-13.3567
nuclear	-13.3567
▁association	-13.3567
▁council	-13.3567
▁bacteria	-13.3567
▁villain	-13.3567
▁$7	-13.3567
▁adamant	-13.3567
▁courtesy	-13.3567
▁cowoker	-13.3567
▁ronald	-13.3567
▁shorthanded	-13.3567
▁erratic	-13.3567
▁literature	-13.3567
▁bleak	-13.3567
▁plummet	-13.3567
▁religio	-13.3567
▁ambitious	-13.3567
▁launch	-13.3568
▁vocal	-13.3568
▁foolish	-13.3568
▁wrx	-13.3568
▁dictat	-13.3568
▁clearwater	-13.3568
▁confidant	-13.3568
▁stalker	-13.3568
▁frantic	-13.3568
▁comedian	-13.3568
▁knox	-13.3569
▁handyman	-13.3569
▁eruption	-13.3569
▁granddaughter	-13.3569
▁momento	-13.357
▁kris	-13.357
▁memento	-13.357
▁werewol	-13.357
▁attribute	-13.3571
▁measure	-13.3571
acle	-13.3572
▁scree	-13.3572
▁chillax	-13.3572
▁mofo	-13.3573
▁homeowner	-13.3574
ematic	-13.3574
▁cupcake	-13.3574
▁rebelli	-13.3575
pole	-13.3576
▁chemo	-13.3576
▁reset	-13.3577
▁erect	-13.3577
▁tarp	-13.3577
▁louis	-13.3578
▁freelancer	-13.3578
▁scamme	-13.3578
▁folders	-13.3579
▁fron	-13.3579
▁layoff	-13.3581
▁grrrrr	-13.3584
▁jackson	-13.3585
▁angri	-13.3585
hipped	-13.3586
▁requirement	-13.3587
▁overload	-13.3591
▁angr	-13.3591
▁moistur	-13.3594
▁policeman	-13.3595
▁agoniz	-13.3595
▁spectac	-13.3596
▁tweet	-13.3599
▁ingrate	-13.3599
▁plugg	-13.3599
▁sol	-13.3599
▁tariffs	-13.36
▁detecti	-13.3601
▁insid	-13.3601
▁sympathiz	-13.3602
▁sickening	-13.3603
▁homerun	-13.3604
▁fume	-13.3605
▁unfortunatly	-13.3607
▁95	-13.3611
▁schedul	-13.3612
▁250	-13.3614
▁expression	-13.3614
▁relevan	-13.3615
▁blushing	-13.3617
avers	-13.3619
▁beginner	-13.362
▁judgement	-13.3621
lace	-13.3622
▁looooo	-13.3622
▁reptiles	-13.3622
gious	-13.3622
wizard	-13.3624
▁firends	-13.3625
▁divide	-13.3626
▁jim	-13.363
▁bopped	-13.3631
-4	-13.3633
▁june	-13.3638
▁predicted	-13.3639
▁mushrooms	-13.3644
▁stroll	-13.3645
▁revisit	-13.3646
▁infest	-13.3648
▁pest	-13.3649
▁immens	-13.3651
▁conta	-13.3652
▁rece	-13.3653
▁intro	-13.3654
▁eag	-13.3655
▁approachable	-13.3659
▁slash	-13.3659
▁plug	-13.3659
▁walkers	-13.3664
▁frien	-13.3665
▁unr	-13.3666
▁chord	-13.3666
▁jenn	-13.3676
▁mamm	-13.3678
▁critical	-13.368
▁rang	-13.3683
▁vey	-13.3683
gruel	-13.3684
▁prisoner	-13.3686
▁detach	-13.3688
hter	-13.3691
ench	-13.3693
acts	-13.3693
▁shores	-13.3696
tacle	-13.37
▁defici	-13.3704
itious	-13.3715
ppies	-13.3719
▁wat	-13.3722
form	-13.3724
▁marine	-13.3725
ement	-13.3727
▁metro	-13.3731
▁fighter	-13.3733
▁inclin	-13.3733
▁liber	-13.3734
▁bon	-13.3736
▁baptis	-13.3738
baby	-13.374
hearted	-13.374
▁ferre	-13.3743
▁hur	-13.3747
caring	-13.3753
ilant	-13.3755
▁malfunctioning	-13.3763
▁interfere	-13.3766
▁impose	-13.3767
▁communicat	-13.3768
▁sprint	-13.3768
▁dwell	-13.3771
▁tapp	-13.3772
▁graphics	-13.3776
▁hydrate	-13.3787
▁tw	-13.3788
▁mugge	-13.379
▁versa	-13.3794
▁whine	-13.3795
▁res	-13.3799
bearing	-13.38
been	-13.38
urb	-13.3806
▁pier	-13.3806
greed	-13.3819
▁cobb	-13.3826
lant	-13.3826
yaki	-13.3827
▁utter	-13.3827
ite	-13.3829
rolla	-13.383
▁manu	-13.3842
forth	-13.3847
rain	-13.3847
▁undercook	-13.3851
▁tre	-13.3851
▁kn	-13.3852
▁dwi	-13.3861
vid	-13.3862
▁sail	-13.3873
▁equip	-13.3878
▁minimalist	-13.3879
▁spine	-13.3881
▁hr	-13.3894
▁absolut	-13.3894
▁suc	-13.3896
▁anythig	-13.39
eparation	-13.3901
tation	-13.3905
ride	-13.3906
card	-13.3918
▁$65	-13.3919
▁criminals	-13.393
cruciat	-13.3939
▁jk	-13.3942
rose	-13.3946
ically	-13.395
asted	-13.3958
▁mens	-13.3958
lines	-13.3959
▁nut	-13.396
▁hardship	-13.3961
volent	-13.3965
▁sneaker	-13.3965
▁wis	-13.3968
ath	-13.3969
ecko	-13.397
▁outsider	-13.3975
lol	-13.3979
vity	-13.3998
event	-13.3998
urning	-13.4013
titude	-13.4016
cure	-13.4017
▁stopp	-13.4023
die	-13.4024
cussion	-13.4028
▁ala	-13.4042
rling	-13.4042
▁clot	-13.4045
ssil	-13.4047
▁dau	-13.4056
▁pal	-13.406
▁cott	-13.4064
timid	-13.4065
▁visual	-13.4068
▁canad	-13.4079
▁lender	-13.4083
▁accessor	-13.4093
▁plead	-13.4095
▁neut	-13.4095
▁energ	-13.4097
rts	-13.41
▁squirm	-13.4101
▁hesitate	-13.4105
▁coincidental	-13.4106
▁cob	-13.4109
active	-13.4118
then	-13.4118
▁automat	-13.4119
▁clouds	-13.412
▁girlfir	-13.4125
iz	-13.4125
strange	-13.4127
▁customize	-13.4132
ang	-13.4142
net	-13.4148
gull	-13.4151
buy	-13.4154
▁scrambl	-13.4163
una	-13.4164
▁pies	-13.417
call	-13.4178
▁del	-13.4181
▁unnotice	-13.4187
delity	-13.4192
▁91	-13.4194
▁rust	-13.4195
ooooo	-13.4196
▁decor	-13.4207
▁swimm	-13.4213
rep	-13.4216
▁tale	-13.4217
▁=	-13.4217
iculous	-13.4225
▁shr	-13.4226
▁walkin	-13.4229
▁refine	-13.423
▁compensat	-13.4234
▁filming	-13.4235
▁ov	-13.4238
▁izzy	-13.4238
▁expectant	-13.424
▁chart	-13.4241
▁walt	-13.4243
roof	-13.4256
▁intervene	-13.426
▁clas	-13.4264
tu	-13.4264
▁empt	-13.4271
whelming	-13.4283
▁escalat	-13.4286
▁neighbours	-13.429
▁betrayer	-13.4291
▁bever	-13.4301
▁cree	-13.4313
▁participat	-13.4316
away	-13.4316
hal	-13.4324
atic	-13.4326
▁terri	-13.4343
▁refinanc	-13.4349
▁gon	-13.4358
great	-13.4363
▁postpon	-13.4367
▁battl	-13.4376
▁understa	-13.4377
strict	-13.4384
▁apr	-13.4395
tered	-13.4395
nguish	-13.4402
▁spec	-13.4406
▁toes	-13.4412
climat	-13.4413
▁traine	-13.443
bble	-13.4449
▁placement	-13.445
▁ppl	-13.4453
▁kat	-13.4453
elain	-13.4455
▁anot	-13.4456
tude	-13.4456
men	-13.4468
▁landscap	-13.4474
▁vent	-13.4477
▁peep	-13.4483
▁kicke	-13.4486
▁sti	-13.4493
▁sword	-13.4494
▁photograph	-13.451
ently	-13.4513
ambi	-13.4515
stated	-13.452
seen	-13.4523
▁irrat	-13.4524
sp	-13.4535
▁relent	-13.4548
spend	-13.4549
xy	-13.4549
▁lasts	-13.4553
father	-13.4554
▁budd	-13.4555
▁messe	-13.4559
▁indulge	-13.4567
know	-13.4568
▁bask	-13.4577
roud	-13.4586
▁20-	-13.4588
▁speci	-13.4612
pric	-13.4612
▁craw	-13.4613
▁foodie	-13.4619
bud	-13.462
▁exception	-13.4621
▁memorize	-13.4624
▁cheeri	-13.4629
▁spina	-13.4632
lty	-13.4636
happy	-13.466
nger	-13.4661
hr	-13.4663
▁postpone	-13.4669
▁chil	-13.4673
▁yu	-13.4683
illed	-13.4691
worst	-13.4692
▁bait	-13.4704
▁weave	-13.4723
▁excit	-13.4726
▁escalate	-13.4755
tropic	-13.4756
ark	-13.4761
rina	-13.4761
▁adopti	-13.4769
▁unders	-13.479
▁exc	-13.4793
ickened	-13.4799
entic	-13.4812
▁bunn	-13.4814
▁accumulat	-13.4819
▁acc	-13.4836
▁laps	-13.4837
▁cere	-13.4844
▁spi	-13.4848
cali	-13.4852
▁hardwork	-13.4866
▁lax	-13.4871
planned	-13.4911
rangers	-13.4913
fight	-13.4913
iling	-13.4927
mous	-13.4937
uerto	-13.4938
west	-13.4938
wow	-13.4942
▁wold	-13.4942
▁coinciden	-13.4945
▁celebrit	-13.4953
▁unwar	-13.4955
once	-13.4957
bag	-13.4958
▁successfull	-13.4966
▁wr	-13.4969
ki	-13.4969
▁barb	-13.4976
▁superst	-13.4979
▁mudd	-13.498
ined	-13.4984
ously	-13.5021
▁lambo	-13.5021
▁moen	-13.5024
tains	-13.5025
▁ramb	-13.5026
▁fie	-13.5026
itly	-13.5042
naw	-13.5069
people	-13.5069
clude	-13.5071
wreck	-13.5071
lif	-13.5077
▁foo	-13.5093
practice	-13.5097
▁examine	-13.5107
handle	-13.5109
▁shin	-13.5118
▁swat	-13.5119
hund	-13.5128
dder	-13.5136
▁mars	-13.5138
▁grav	-13.514
dependent	-13.5147
eping	-13.5148
▁sting	-13.5152
este	-13.5162
haha	-13.5175
▁choi	-13.5179
▁popp	-13.519
its	-13.5194
▁humo	-13.5199
risk	-13.5199
cough	-13.5201
birth	-13.5206
sense	-13.5206
set	-13.5212
▁notic	-13.5213
▁definite	-13.5215
club	-13.5217
▁repuls	-13.5219
pened	-13.5224
amed	-13.523
flirt	-13.523
writer	-13.5233
bomb	-13.5236
▁grate	-13.5238
lose	-13.5241
motivated	-13.5242
involved	-13.5249
reflect	-13.5249
ounce	-13.5256
grudge	-13.5278
▁bru	-13.5287
~	-13.529
hammer	-13.5299
▁hound	-13.5305
▁wax	-13.5306
egg	-13.5306
▁waters	-13.5307
▁catal	-13.5309
▁defini	-13.5311
ternal	-13.5315
posed	-13.5316
crushing	-13.5318
▁39	-13.5327
▁cling	-13.5332
tactic	-13.5334
ization	-13.5342
▁leas	-13.5343
▁bough	-13.5346
rice	-13.535
▁persisten	-13.5362
ucked	-13.5371
▁lowe	-13.5373
headed	-13.5374
▁abilit	-13.5381
▁beam	-13.5381
▁chillin	-13.5381
▁arrang	-13.5389
tho	-13.5392
▁suppl	-13.5403
▁tailgat	-13.5411
▁refinish	-13.5414
haul	-13.5427
▁unwa	-13.5438
ager	-13.5439
nitor	-13.544
▁behaviour	-13.5443
nity	-13.5444
ritis	-13.5446
▁technique	-13.5448
▁expir	-13.545
ony	-13.5453
rking	-13.5456
▁42	-13.5458
▁herb	-13.5464
▁relation	-13.5464
▁memor	-13.5468
▁awesom	-13.5471
phan	-13.5475
▁stair	-13.5479
▁groc	-13.5495
▁rela	-13.5496
▁marker	-13.5497
▁retir	-13.55
▁hospitalize	-13.5511
trace	-13.5513
▁moo	-13.5517
▁infuriat	-13.552
▁unnerv	-13.552
surg	-13.5524
▁invent	-13.5528
illionaire	-13.5529
▁terrify	-13.553
inf	-13.5533
ax	-13.5536
lets	-13.554
▁inclu	-13.5541
▁promote	-13.5545
100	-13.5551
arts	-13.5552
lining	-13.5555
▁sunda	-13.556
▁porc	-13.556
▁balanc	-13.5562
▁avail	-13.5563
▁traffi	-13.5565
▁unpredictab	-13.5565
▁razor	-13.5567
▁chemotherapy	-13.5567
▁exaggerate	-13.5567
▁hysterical	-13.5567
▁margarita	-13.5567
▁massachuset	-13.5567
▁parakeet	-13.5567
▁pedophile	-13.5567
▁perturb	-13.5567
▁premier	-13.5567
▁pyramids	-13.5567
▁reprimand	-13.5567
▁sabotage	-13.5567
▁samaritan	-13.5567
▁santorini	-13.5567
▁scribble	-13.5567
▁tranquil	-13.5567
▁absorb	-13.5567
▁architect	-13.5567
▁censor	-13.5567
▁enhance	-13.5567
▁fabric	-13.5567
▁massacre	-13.5567
▁shampoo	-13.5567
▁cremation	-13.5567
▁deteriorat	-13.5567
▁morbid	-13.5567
▁splatoon	-13.5567
▁athelete	-13.5567
▁vindic	-13.5567
▁pragmat	-13.5567
▁camaro	-13.5567
▁uhmmnn	-13.5567
▁monoton	-13.5567
▁barrier	-13.5567
▁exposure	-13.5567
▁manifest	-13.5567
▁glitch	-13.5567
▁snitch	-13.5567
▁branson	-13.5567
▁disloyal	-13.5567
▁sandstorm	-13.5567
▁benign	-13.5567
▁bliss	-13.5567
▁abrupt	-13.5568
▁1990	-13.5568
▁uproot	-13.5568
▁hostess	-13.5568
▁resonate	-13.5568
▁minister	-13.5568
▁yessir	-13.5568
▁refrain	-13.5569
▁prescription	-13.5569
▁sample	-13.5569
▁flunk	-13.5569
▁appearance	-13.5569
▁slither	-13.557
▁merchandise	-13.557
▁schol	-13.557
▁devolv	-13.557
▁tangi	-13.557
▁cocoa	-13.557
▁sprout	-13.557
▁introduction	-13.557
▁clubbing	-13.5571
▁lawsuit	-13.5571
▁finace	-13.5572
▁dismiss	-13.5573
▁spree	-13.5573
ogram	-13.5574
▁thumb	-13.5574
▁worship	-13.5574
▁backseat	-13.5575
unctio	-13.5575
▁encl	-13.5575
▁annoyance	-13.5576
▁wraking	-13.5577
▁matri	-13.5578
erra	-13.5578
▁unforget	-13.5578
▁motto	-13.5578
▁reread	-13.5579
▁presum	-13.5579
▁rhy	-13.5579
▁venue	-13.5579
▁dawn	-13.558
▁cozy	-13.558
▁chump	-13.5581
▁37	-13.5581
rawl	-13.5582
su	-13.5583
▁convict	-13.5583
shot	-13.5584
▁kha	-13.5584
burg	-13.5584
▁categor	-13.5585
▁clever	-13.5588
▁jew	-13.5588
semi	-13.5589
▁capacit	-13.5591
▁panel	-13.5591
▁effortless	-13.5592
▁steel	-13.5594
▁quirk	-13.5595
▁solv	-13.5595
▁sketch	-13.5597
▁princess	-13.5598
ghter	-13.5599
▁unfor	-13.5599
▁consume	-13.5601
▁syria	-13.5602
hand	-13.5603
▁reign	-13.5604
▁earlie	-13.5606
▁catastrophe	-13.5606
▁transparen	-13.5607
▁squeak	-13.5607
ania	-13.5608
▁skimp	-13.5609
▁spiritual	-13.5616
▁bonuse	-13.5617
▁stabb	-13.5619
▁intrigued	-13.562
▁buckle	-13.5621
▁situat	-13.5622
▁demean	-13.5622
▁consideration	-13.5623
▁giggle	-13.5627
▁stub	-13.5629
pen	-13.563
▁hopful	-13.5633
iend	-13.5634
clamp	-13.5635
▁jerseys	-13.5636
▁moderate	-13.5637
▁strengthen	-13.5637
▁cheek	-13.5638
▁flicker	-13.5639
▁boob	-13.5639
▁fonder	-13.5641
▁hitch	-13.5643
▁vig	-13.5645
▁tithes	-13.5646
auze	-13.5649
wixt	-13.5651
▁afr	-13.5652
▁hahahah	-13.5652
▁audio	-13.5652
▁chugg	-13.5659
▁edible	-13.5663
▁legally	-13.5663
▁displeas	-13.5668
▁und	-13.567
cer	-13.5678
strap	-13.568
quito	-13.568
▁plunge	-13.568
ovies	-13.5682
▁crop	-13.5684
sy	-13.5686
▁everlast	-13.5687
▁cred	-13.5692
▁yakk	-13.5699
▁mob	-13.5703
▁lul	-13.5704
▁endless	-13.5708
185	-13.571
▁obey	-13.5713
▁summers	-13.5714
▁ughhh	-13.5718
migrants	-13.5725
▁octop	-13.5725
sty	-13.5729
▁reds	-13.573
▁lenienc	-13.5734
▁confuse	-13.5736
band	-13.5737
▁cons	-13.5742
▁appeal	-13.5742
riff	-13.5745
eled	-13.5749
▁adam	-13.575
gent	-13.5753
ots	-13.5758
▁bolt	-13.5759
▁expire	-13.5761
fly	-13.5762
▁mull	-13.5764
▁dropout	-13.5767
avy	-13.5774
▁lug	-13.5774
▁bawl	-13.5775
ens	-13.5784
▁mmm	-13.5789
▁blabb	-13.5794
▁recreati	-13.5795
▁lifter	-13.5797
reless	-13.581
▁scholarships	-13.581
nned	-13.5811
uts	-13.5814
▁cig	-13.5814
▁bagel	-13.5826
▁collar	-13.5827
▁ano	-13.5837
lphi	-13.5842
▁fen	-13.5845
▁£2	-13.5845
▁calend	-13.585
▁directors	-13.5854
▁trave	-13.5857
▁bucke	-13.5861
▁tunes	-13.5862
▁logic	-13.5863
urance	-13.5868
▁collid	-13.5877
▁critici	-13.588
▁pale	-13.5887
roga	-13.5889
holder	-13.5893
▁mattered	-13.5897
tment	-13.5897
▁cuba	-13.59
dog	-13.5901
ows	-13.5902
ssing	-13.5909
▁jerker	-13.591
▁strain	-13.5914
▁dub	-13.5916
▁runner	-13.5918
▁waterp	-13.5919
67	-13.5929
heater	-13.5932
▁cre	-13.5936
would	-13.594
▁saddening	-13.594
▁slee	-13.5941
pr	-13.5942
▁motive	-13.5943
▁weirdo	-13.5944
▁mortal	-13.5945
▁driv	-13.5946
bolis	-13.595
▁pur	-13.5952
▁ridi	-13.5964
▁schoo	-13.5968
▁biz	-13.597
▁via	-13.5971
▁agitat	-13.5976
▁requeste	-13.5985
train	-13.5991
player	-13.6004
▁tang	-13.6008
▁charit	-13.6015
quil	-13.6016
▁misunderst	-13.6018
▁brid	-13.6022
nuous	-13.6023
pressed	-13.6026
▁celebr	-13.6029
akes	-13.6037
▁kil	-13.6046
▁devastation	-13.6051
rdle	-13.6054
di	-13.6054
▁enabl	-13.6054
▁boundar	-13.6057
edes	-13.606
read	-13.6061
rho	-13.6074
▁diabeti	-13.6078
▁carreful	-13.6079
▁devils	-13.6084
▁yards	-13.6084
▁visibl	-13.6085
▁rev	-13.6085
pol	-13.6089
▁replay	-13.6094
▁escap	-13.6097
pod	-13.6116
▁weel	-13.6124
▁swip	-13.6133
▁anim	-13.6137
▁acid	-13.6157
▁lamb	-13.6159
ickety	-13.6161
▁rem	-13.6161
▁cont	-13.6162
▁goooo	-13.6165
opposit	-13.6165
vacation	-13.6166
▁employe	-13.6182
row	-13.6192
fe	-13.6192
▁eddy	-13.6209
tive	-13.621
▁yank	-13.6212
mise	-13.6218
luct	-13.6222
uld	-13.6225
▁cheater	-13.6232
▁legg	-13.6248
wels	-13.625
▁smel	-13.6256
▁reassure	-13.6259
stain	-13.6261
ustling	-13.6262
acket	-13.6266
pop	-13.6269
▁tote	-13.6273
ief	-13.628
▁curios	-13.6281
▁conn	-13.6284
▁2-	-13.6296
ain	-13.6297
▁appl	-13.6303
tor	-13.6303
loa	-13.6304
▁mayo	-13.6304
▁wal	-13.6307
naly	-13.6313
peron	-13.6318
reme	-13.6323
▁criticize	-13.6328
▁parm	-13.6334
▁+	-13.6335
▁fel	-13.6344
rox	-13.6355
cher	-13.6372
▁fai	-13.6373
vile	-13.6375
▁nai	-13.6376
cco	-13.6387
cup	-13.6391
▁pepp	-13.6392
▁acro	-13.6394
▁consolidate	-13.6394
iable	-13.6398
▁chan	-13.6399
▁infa	-13.64
▁pb	-13.64
▁stalk	-13.6404
▁rinse	-13.6411
▁tvs	-13.6416
▁swe	-13.6423
ouri	-13.6437
▁delays	-13.6438
▁relocat	-13.6443
master	-13.6449
▁keepsake	-13.6458
▁5-	-13.6459
▁desir	-13.646
▁edg	-13.6473
▁nas	-13.6473
▁stupides	-13.6478
▁hon	-13.6484
bil	-13.6492
▁despise	-13.6495
▁mani	-13.6499
▁hahahahaha	-13.65
ndant	-13.6501
▁thro	-13.6507
▁disasters	-13.6513
▁weekday	-13.6514
▁minim	-13.6515
▁swatte	-13.6517
▁compensati	-13.6517
▁mete	-13.6521
▁agen	-13.6527
ging	-13.6545
▁updat	-13.6554
▁fru	-13.6559
ially	-13.658
summer	-13.6583
▁visi	-13.6592
▁surpasse	-13.6597
core	-13.6609
moving	-13.661
▁blinds	-13.6615
meber	-13.6625
▁pisse	-13.6626
▁edit	-13.6631
▁decorati	-13.6634
▁functional	-13.6645
▁exceptional	-13.6651
▁grie	-13.6655
▁registr	-13.6659
▁devi	-13.667
rings	-13.6671
▁ny	-13.6679
▁jus	-13.6679
▁reme	-13.6691
▁discussi	-13.6693
▁observe	-13.6708
▁daug	-13.6708
ntia	-13.6716
sma	-13.6716
erial	-13.6717
dk	-13.6729
▁arg	-13.6742
va	-13.6745
ledge	-13.6747
▁poun	-13.6755
tangle	-13.6762
perating	-13.6766
dating	-13.6797
▁wick	-13.6805
rty	-13.6809
lip	-13.6811
oz	-13.682
oops	-13.6828
ments	-13.6843
win	-13.6843
▁patr	-13.6849
lin	-13.6849
oise	-13.6851
dest	-13.6852
▁ble	-13.686
stone	-13.6861
▁emba	-13.6877
illo	-13.6883
▁responsabil	-13.6889
fortable	-13.6892
tful	-13.6893
fast	-13.6897
▁comed	-13.6899
▁sung	-13.6907
▁dye	-13.6907
veral	-13.6909
▁youtuber	-13.6913
▁cali	-13.6927
41	-13.6935
rio	-13.6939
si	-13.694
int	-13.6946
ues	-13.6946
bet	-13.6953
500	-13.6954
race	-13.6955
equil	-13.6958
cooper	-13.6962
kyo	-13.6967
▁ple	-13.6969
evious	-13.6974
cap	-13.699
iv	-13.6996
infe	-13.7013
▁vacationing	-13.7024
▁glo	-13.7042
6-	-13.7047
grandmother	-13.7048
mming	-13.7058
vely	-13.7068
▁luna	-13.7072
▁rel	-13.7074
conditional	-13.708
ances	-13.7084
lle	-13.7087
▁navigat	-13.7095
eem	-13.7095
▁consolidat	-13.7096
▁canoe	-13.71
later	-13.71
▁evacuat	-13.7102
▁er	-13.7128
▁utilize	-13.7129
▁sweats	-13.7145
ep	-13.7149
▁gangs	-13.7155
lab	-13.7159
raud	-13.7164
▁matur	-13.7168
▁sm	-13.7177
▁criticiz	-13.7198
ai	-13.7201
illa	-13.7201
ids	-13.7202
ild	-13.7209
nois	-13.7213
erall	-13.7225
▁merg	-13.7232
ulk	-13.7233
anua	-13.7239
▁gou	-13.724
▁volu	-13.7241
rac	-13.725
▁hom	-13.7263
▁abu	-13.7264
▁wro	-13.7268
▁insul	-13.7269
▁thik	-13.7279
built	-13.7286
ents	-13.7298
▁vend	-13.7299
hopper	-13.731
tstep	-13.7313
▁troll	-13.7317
▁bin	-13.7317
▁somethig	-13.7317
ber	-13.7328
rising	-13.7332
small	-13.7339
▁usuall	-13.7347
▁eternal	-13.7347
-2	-13.7348
unset	-13.7355
dont	-13.7365
tations	-13.7366
▁scen	-13.7367
▁underestimat	-13.7368
▁3-	-13.7368
chatted	-13.7368
erous	-13.7378
▁spac	-13.7389
trap	-13.7399
▁curf	-13.74
acles	-13.741
▁hogg	-13.7412
▁crow	-13.7415
oming	-13.7416
▁hoa	-13.7423
▁pete	-13.7426
▁lonli	-13.7443
iage	-13.7444
ere	-13.745
fire	-13.7453
usually	-13.7456
bank	-13.7457
market	-13.7474
▁trop	-13.7476
▁spun	-13.7479
number	-13.7486
angs	-13.7489
lous	-13.7489
bay	-13.7504
▁compose	-13.7514
tended	-13.7527
rel	-13.7531
aunt	-13.7534
adult	-13.7542
▁4000	-13.7546
snake	-13.7546
▁carb	-13.7549
150	-13.7549
▁definitl	-13.7552
▁nasti	-13.7561
rb	-13.7563
table	-13.7564
mia	-13.7564
spice	-13.7565
uc	-13.757
okay	-13.7573
ughter	-13.7574
ute	-13.7577
rr	-13.7579
▁practis	-13.7584
alo	-13.7585
bc	-13.7586
wheel	-13.7597
confidence	-13.7601
successful	-13.7603
xp	-13.7605
▁sledg	-13.7607
▁scal	-13.761
elieve	-13.7612
respect	-13.7612
issue	-13.7613
cause	-13.7617
acco	-13.7619
▁risks	-13.762
mensa	-13.762
▁pok	-13.7621
tract	-13.7632
▁goof	-13.7635
solated	-13.7639
drop	-13.765
nfuriating	-13.7651
plus	-13.7654
▁rom	-13.7667
▁churn	-13.7677
never	-13.7683
value	-13.7693
clock	-13.7698
▁asp	-13.7699
▁bur	-13.77
higher	-13.77
fresh	-13.7705
tries	-13.7705
▁prop	-13.7709
code	-13.7711
chair	-13.7714
election	-13.7717
watching	-13.7719
▁£	-13.7721
lou	-13.7722
aver	-13.7724
feel	-13.7726
cna	-13.7739
▁huma	-13.7742
▁wer	-13.7748
▁opera	-13.7751
approv	-13.7751
rest	-13.7755
possum	-13.7761
hahah	-13.7762
inclu	-13.7765
ss	-13.7765
button	-13.7771
ssert	-13.7772
75	-13.7773
draw	-13.7773
▁bal	-13.7775
fool	-13.7779
fits	-13.778
corporat	-13.7784
maid	-13.7784
▁novelt	-13.7786
iht	-13.7788
ushing	-13.7789
dominate	-13.7789
flower	-13.7797
fake	-13.7807
millionaire	-13.7808
▁surp	-13.7813
satur	-13.7813
latter	-13.7814
bone	-13.7817
▁bapti	-13.7823
▁strategi	-13.7824
exceed	-13.7827
▁startl	-13.7828
▁apa	-13.783
pond	-13.7837
▁span	-13.7839
protective	-13.7839
▁congrat	-13.7842
shore	-13.7847
▁puzzl	-13.7852
bound	-13.7859
handed	-13.7869
looking	-13.7876
vac	-13.7882
lse	-13.7888
unbe	-13.7894
dden	-13.7905
▁bikin	-13.7906
bee	-13.7906
talking	-13.7908
aned	-13.7916
ect	-13.7917
cig	-13.7918
▁autis	-13.7919
nb	-13.7919
▁absence	-13.7924
mmun	-13.793
dry	-13.793
ethi	-13.7935
gal	-13.7938
wing	-13.794
mins	-13.7944
▁spo	-13.7944
▁mushroom	-13.7947
likely	-13.795
▁vitamin	-13.7951
▁supplement	-13.7951
▁warrior	-13.7951
▁creature	-13.7952
wayne	-13.7952
leaned	-13.7953
van	-13.7957
ght	-13.7966
▁js	-13.7968
▁rica	-13.7969
▁disturb	-13.7969
▁embaras	-13.797
▁throne	-13.7971
▁afrai	-13.7977
excited	-13.7978
▁bubbl	-13.798
fraud	-13.7991
▁intrigu	-13.7993
rib	-13.7995
▁barge	-13.7997
▁appreci	-13.7999
▁recen	-13.8012
▁obli	-13.8013
▁rushe	-13.8017
▁schedu	-13.8019
▁uhhh	-13.8026
▁coffe	-13.8029
alistic	-13.8033
▁freelanc	-13.8039
▁grrrr	-13.804
▁knowledg	-13.8043
▁custo	-13.8046
▁salar	-13.805
▁creams	-13.805
▁degre	-13.8052
▁somebod	-13.806
▁nev	-13.8065
▁millio	-13.8065
hool	-13.8065
▁bac	-13.8065
▁automatic	-13.8066
stitute	-13.8066
ghborhood	-13.8066
sarcasm	-13.8067
▁beyblade	-13.8067
▁flexibility	-13.8067
▁furhman	-13.8067
▁glimpse	-13.8067
▁holocaust	-13.8067
▁hoodlums	-13.8067
▁inaccurate	-13.8067
▁misogenist	-13.8067
▁motnh	-13.8067
▁pedestrian	-13.8067
▁philosophy	-13.8067
▁premium	-13.8067
▁principle	-13.8067
▁reciprocate	-13.8067
▁rehabilitate	-13.8067
▁reimburse	-13.8067
▁broadcast	-13.8067
▁carribean	-13.8067
▁applaud	-13.8067
▁honeslty	-13.8067
▁hyperthyroid	-13.8067
▁misfortune	-13.8067
▁siberia	-13.8067
▁constrain	-13.8067
▁jinx	-13.8067
▁kevin	-13.8067
▁minimize	-13.8067
matizing	-13.8067
▁slugg	-13.8067
▁paralysis	-13.8067
▁forensic	-13.8067
_2	-13.8067
▁hrmm	-13.8067
▁margin	-13.8067
▁declare	-13.8067
▁illusion	-13.8067
▁substitute	-13.8067
▁euphori	-13.8067
▁mattress	-13.8067
▁activist	-13.8067
▁polluti	-13.8067
▁hitchhik	-13.8067
▁fluently	-13.8067
▁creamsicle	-13.8067
▁hairspray	-13.8067
▁abnormal	-13.8067
▁dishonest	-13.8067
▁scroll	-13.8067
▁rearrange	-13.8067
▁contributions	-13.8067
▁197	-13.8067
▁squish	-13.8067
▁revolution	-13.8068
▁decency	-13.8068
▁perpet	-13.8068
▁unpredictable	-13.8068
▁adhd	-13.8068
▁yessssss	-13.8068
adequate	-13.8068
▁yahoo	-13.8068
▁accompany	-13.8069
▁furnish	-13.8069
▁tutorial	-13.8069
▁reconsider	-13.8069
▁articulat	-13.8069
▁pallet	-13.807
▁yuk	-13.807
▁motivator	-13.807
▁greatgrand	-13.807
▁resign	-13.807
cuum	-13.8071
shift	-13.8071
▁anesthe	-13.8071
▁voiceover	-13.8072
▁tailbon	-13.8073
▁restrict	-13.8074
▁foresee	-13.8074
▁waterfall	-13.8074
▁nuis	-13.8075
▁regime	-13.8076
▁poste	-13.8076
▁fiscal	-13.8076
▁tonsil	-13.8077
▁embrass	-13.8078
▁privele	-13.8078
ija	-13.8078
cian	-13.8079
▁appetizer	-13.8079
▁electro	-13.8079
▁raider	-13.8079
▁afterwords	-13.808
▁combat	-13.808
▁bulk	-13.8082
▁smirk	-13.8082
▁315	-13.8082
jammin	-13.8082
▁sparrow	-13.8084
▁regain	-13.8084
▁totino	-13.8085
▁mcg	-13.8086
▁dazz	-13.8087
▁tiresome	-13.8088
ular	-13.8089
▁admin	-13.809
▁resc	-13.809
▁blah	-13.8091
▁shelves	-13.8091
▁colleg	-13.8091
ks	-13.8092
▁efficiently	-13.8092
werp	-13.8092
▁misery	-13.8093
▁chirp	-13.8095
▁rigth	-13.8096
▁deflat	-13.8096
▁esp	-13.8097
▁congesti	-13.8097
000000	-13.8098
▁carrot	-13.8099
span	-13.8099
▁siren	-13.8099
▁yessss	-13.8101
▁aaawww	-13.8104
▁avale	-13.8105
▁wiz	-13.8106
▁highlight	-13.8106
▁cameron	-13.8106
▁stabili	-13.8109
igma	-13.8113
cier	-13.8114
▁sup	-13.8115
▁continent	-13.8115
cola	-13.8116
▁omelet	-13.8119
afel	-13.812
lumber	-13.8121
▁surpri	-13.8122
▁sec	-13.8125
▁venting	-13.8126
▁pluck	-13.8126
▁ferris	-13.8126
▁sis	-13.8128
▁hangover	-13.8129
tention	-13.813
villa	-13.813
▁begge	-13.8131
▁globe	-13.8134
aly	-13.8135
▁flabb	-13.8135
▁convi	-13.8136
▁robo	-13.8137
▁distressing	-13.8138
▁relic	-13.8139
iance	-13.8141
uire	-13.8143
dela	-13.8149
▁foreclosed	-13.815
▁mystic	-13.8153
▁unfortune	-13.8162
ional	-13.8167
mper	-13.8169
▁dia	-13.8171
▁noisie	-13.8173
▁syr	-13.8177
polis	-13.8179
uses	-13.8182
▁scul	-13.8188
crosse	-13.819
▁arth	-13.8191
▁advanc	-13.8192
houl	-13.8193
▁insulate	-13.8195
▁deceiv	-13.8199
▁hangers	-13.8199
▁shoul	-13.8202
umpte	-13.8204
▁transit	-13.8205
▁conten	-13.8206
▁instrumental	-13.8207
▁responsive	-13.8207
▁rolle	-13.8208
▁pudd	-13.8212
gressive	-13.8215
tuation	-13.8217
tehr	-13.822
ctu	-13.8222
▁tipsy	-13.8223
▁wiser	-13.8224
ferment	-13.8228
▁behaviours	-13.8229
▁90-	-13.8232
▁barbie	-13.8235
▁scalp	-13.8238
coon	-13.8238
▁zo	-13.8247
▁unavoi	-13.8247
ev	-13.8247
▁unforgiv	-13.8249
ehydrate	-13.8249
ntly	-13.8252
▁hottie	-13.8252
oney	-13.8252
ification	-13.8256
ksw	-13.8264
▁yeaaa	-13.8266
meal	-13.8274
teres	-13.828
motion	-13.8282
▁agitate	-13.8282
▁welldone	-13.8284
▁definatl	-13.8287
lox	-13.8287
stray	-13.8288
▁gord	-13.8289
▁permi	-13.829
fran	-13.8293
▁bloom	-13.8304
llow	-13.8305
▁yah	-13.8306
▁disa	-13.8307
▁scatter	-13.8312
ue	-13.8315
balance	-13.8318
tractor	-13.8318
▁compla	-13.8352
▁venu	-13.8361
norm	-13.8362
▁suppris	-13.8369
▁speach	-13.8377
lef	-13.8379
▁num	-13.8382
229	-13.8384
mores	-13.8386
enager	-13.8389
▁upse	-13.839
▁cabb	-13.8392
statement	-13.8394
▁attendant	-13.8397
▁tran	-13.8401
▁hosti	-13.8415
▁server	-13.8428
▁gel	-13.8429
▁pierce	-13.8431
bb	-13.8438
▁delic	-13.8442
▁profil	-13.8444
▁nag	-13.8445
abo	-13.8446
▁convert	-13.8447
▁ambitio	-13.8448
▁chara	-13.845
▁termina	-13.8452
▁beings	-13.8454
does	-13.8464
lower	-13.8464
▁smith	-13.8465
elief	-13.847
mil	-13.8476
aten	-13.8481
obb	-13.8487
▁smother	-13.8488
replace	-13.849
rasp	-13.8498
leaner	-13.85
▁usef	-13.85
▁downsiz	-13.8508
omo	-13.8514
▁momm	-13.8517
sylv	-13.8519
▁russe	-13.8521
oss	-13.8525
tzu	-13.8526
▁aff	-13.8527
▁everyth	-13.8531
▁shield	-13.8541
▁15-	-13.8541
ited	-13.8549
▁attenti	-13.8552
▁typo	-13.8552
raging	-13.8558
▁coma	-13.8565
need	-13.8567
stan	-13.8569
inded	-13.8581
nice	-13.8587
▁dum	-13.8588
▁sams	-13.8589
dad	-13.8589
rman	-13.8604
▁forc	-13.8622
rea	-13.8624
▁updates	-13.8635
▁buster	-13.8639
akh	-13.8642
bac	-13.8647
mb	-13.8652
alled	-13.8657
tiful	-13.8661
▁gl	-13.8662
ali	-13.8667
llige	-13.8675
▁crumb	-13.8679
▁translat	-13.8679
▁contr	-13.8679
▁cna	-13.8686
▁gunn	-13.8687
▁clam	-13.8688
▁harmed	-13.8689
▁kra	-13.8692
▁cel	-13.8709
▁improvise	-13.871
▁chipp	-13.871
▁describ	-13.8714
▁cartil	-13.8717
fit	-13.8719
***	-13.8722
▁virtu	-13.8724
lp	-13.8727
▁flus	-13.8732
▁ashame	-13.8733
ception	-13.8736
gest	-13.8747
▁bos	-13.8749
cto	-13.8749
wro	-13.8765
tenant	-13.8767
▁pins	-13.8774
▁nast	-13.8781
▁ital	-13.8783
▁penni	-13.8791
▁cal	-13.8796
bi	-13.88
nuts	-13.8803
▁snob	-13.8808
pg	-13.8809
▁fumble	-13.8813
▁donation	-13.8835
▁operations	-13.8838
heating	-13.884
▁fixation	-13.8841
▁gatherings	-13.8848
▁drill	-13.8857
bey	-13.8858
▁resell	-13.8859
etto	-13.886
gara	-13.8866
▁hor	-13.8874
▁backfire	-13.8879
neur	-13.8882
▁paralyze	-13.8887
rbor	-13.8887
reason	-13.889
every	-13.8892
ja	-13.8892
▁waves	-13.8897
▁ahd	-13.8903
▁peek	-13.8904
▁brewer	-13.8912
fac	-13.8925
az	-13.8927
soft	-13.8933
▁4-	-13.8936
stol	-13.8936
kin	-13.8937
tes	-13.8938
cau	-13.8938
▁repulsi	-13.8939
ddit	-13.8939
balls	-13.8946
▁cri	-13.8947
lda	-13.8949
▁respecti	-13.8958
liberat	-13.8967
sen	-13.8973
▁bash	-13.8986
▁finishe	-13.899
▁teache	-13.899
patience	-13.8994
hign	-13.8998
▁kisse	-13.9003
cker	-13.9013
▁caretak	-13.9014
▁courte	-13.9024
▁nam	-13.9032
lice	-13.9039
▁melte	-13.9041
▁revis	-13.9041
cles	-13.9042
▁borr	-13.905
▁deme	-13.9054
tenn	-13.9056
dre	-13.9068
▁vitr	-13.907
rence	-13.9073
▁yal	-13.9073
▁tyle	-13.9076
lid	-13.908
▁induc	-13.9097
bid	-13.9103
▁explod	-13.9103
eady	-13.9111
▁fic	-13.9114
citi	-13.9114
armin	-13.9115
▁obst	-13.9118
girl	-13.9119
truction	-13.9124
▁beep	-13.9126
▁weeding	-13.9128
tters	-13.913
lian	-13.9138
▁toda	-13.9139
▁navigati	-13.9142
ikes	-13.9148
raves	-13.915
▁lin	-13.9155
▁girlfrie	-13.9167
wirl	-13.9172
▁pers	-13.918
▁deci	-13.9183
▁spra	-13.9188
▁thunders	-13.9188
wen	-13.9193
▁meditate	-13.92
▁dilig	-13.9201
▁mill	-13.9207
ither	-13.9209
▁id	-13.921
▁lun	-13.9211
▁badge	-13.9229
▁ris	-13.9245
teen	-13.9246
▁um	-13.9246
▁locke	-13.9251
ess	-13.926
▁bea	-13.9265
▁assum	-13.9272
▁toilets	-13.9272
▁washer	-13.9275
▁cheeses	-13.9275
ux	-13.9279
▁reasonabl	-13.9281
aboli	-13.9284
ndesc	-13.9289
napping	-13.9303
▁sku	-13.9305
contentment	-13.9316
rok	-13.9321
quite	-13.9347
njur	-13.9352
tical	-13.9361
▁gp	-13.9367
▁waddle	-13.9367
ider	-13.9369
nister	-13.9381
▁ska	-13.9382
aura	-13.9382
nia	-13.9388
ampa	-13.939
▁unde	-13.9394
iser	-13.9399
leg	-13.9411
▁meself	-13.9416
▁unbeli	-13.9423
▁repl	-13.9424
ope	-13.9425
▁squ	-13.9432
▁som	-13.9432
something	-13.9435
▁anniversa	-13.9438
▁violat	-13.9445
ympho	-13.9445
jose	-13.9447
▁speciali	-13.9448
anyon	-13.9448
rewed	-13.9448
▁quic	-13.9458
▁frapp	-13.946
▁loosen	-13.9464
▁sitti	-13.9477
guy	-13.9494
▁umb	-13.9507
▁quar	-13.9509
app	-13.9517
▁manufactur	-13.9526
cdonald	-13.9539
doing	-13.956
▁reaso	-13.9561
wa	-13.957
▁anti	-13.9571
cents	-13.9573
▁pub	-13.9574
zi	-13.9576
uction	-13.9579
▁satel	-13.958
▁advis	-13.9584
▁sch	-13.9586
unno	-13.9588
culu	-13.9588
-6	-13.9597
definitely	-13.9599
▁195	-13.9609
rona	-13.9611
best	-13.962
oin	-13.9621
utter	-13.9625
▁models	-13.9632
onal	-13.9639
taur	-13.9642
bie	-13.9646
▁expe	-13.9654
▁rival	-13.9658
cking	-13.9659
▁tourn	-13.9666
▁rese	-13.9675
paw	-13.9684
ek	-13.9701
▁stri	-13.9703
rg	-13.9714
tors	-13.9715
pro	-13.9716
irs	-13.9721
▁secur	-13.9726
team	-13.9728
erga	-13.9737
▁grandda	-13.9753
unch	-13.9755
lite	-13.9769
chool	-13.9787
▁anniversar	-13.9789
nace	-13.9797
rin	-13.9798
uff	-13.9816
related	-13.9816
elve	-13.9819
▁murdere	-13.9834
▁ada	-13.9835
sk	-13.9849
incess	-13.9849
rmu	-13.9858
▁bruis	-13.9881
nz	-13.9886
▁batt	-13.9898
inister	-13.9925
▁tort	-13.9932
orn	-13.9933
▁bra	-13.9938
▁eb	-13.9969
unce	-13.9975
nny	-13.9975
tres	-13.9987
▁rema	-14.0044
▁opt	-14.0054
▁ringer	-14.0056
itating	-14.0067
ological	-14.0085
should	-14.009
ea	-14.0091
yyyyy	-14.0094
ari	-14.0101
han	-14.0119
▁deduct	-14.0136
elling	-14.0136
▁queu	-14.014
lown	-14.0148
clud	-14.0154
eve	-14.0162
love	-14.0169
▁afri	-14.0199
▁incompet	-14.02
nded	-14.0202
▁learner	-14.0207
▁meow	-14.0208
▁waive	-14.0208
▁scramble	-14.0218
horn	-14.0219
▁bogg	-14.0231
▁splat	-14.0233
hope	-14.0237
▁patt	-14.0243
confident	-14.0252
ead	-14.0255
▁lav	-14.0256
▁sha	-14.026
lati	-14.0261
mina	-14.0261
abilities	-14.0276
troverted	-14.0278
▁furn	-14.0282
▁refin	-14.0284
▁induce	-14.0287
▁missp	-14.0295
understood	-14.0299
action	-14.0306
▁fille	-14.0311
▁sunn	-14.0317
▁spir	-14.0317
pair	-14.034
eel	-14.0342
fun	-14.0344
torial	-14.0359
parti	-14.0362
arch	-14.0363
nag	-14.0364
▁dan	-14.0364
ink	-14.0366
broken	-14.0373
icky	-14.038
▁wooo	-14.0382
into	-14.0408
ldnt	-14.0426
▁cove	-14.0433
bu	-14.0439
▁indicate	-14.044
pression	-14.0446
vader	-14.0455
tart	-14.0461
reek	-14.0469
▁admitt	-14.0477
▁gymnas	-14.0486
ishes	-14.0487
teful	-14.0492
rocky	-14.0499
▁stat	-14.0502
lusion	-14.0503
rief	-14.0507
obby	-14.0516
▁distr	-14.0534
urns	-14.0537
unexpected	-14.0539
brella	-14.0542
math	-14.0555
endant	-14.0559
ateful	-14.0567
cious	-14.0576
▁electr	-14.0577
▁toothp	-14.0583
pants	-14.0597
woman	-14.0606
▁penn	-14.0612
▁$35	-14.0625
areth	-14.0649
90	-14.0652
▁nigh	-14.0653
izar	-14.0654
sef	-14.0655
▁buck	-14.0664
ye	-14.0671
sement	-14.0677
gen	-14.069
please	-14.0694
blood	-14.0694
▁tucke	-14.0696
▁dev	-14.0698
sey	-14.0711
▁creepie	-14.0714
finiti	-14.0718
continue	-14.0721
esl	-14.0724
▁ang	-14.0726
pit	-14.0734
nor	-14.0742
▁seeming	-14.0745
▁sus	-14.0746
lee	-14.075
▁ser	-14.0762
▁inquir	-14.0772
myself	-14.0785
▁marti	-14.079
camp	-14.079
▁hoop	-14.0793
somewhere	-14.0797
nge	-14.08
distance	-14.0807
▁clea	-14.0807
▁sle	-14.0818
careful	-14.0828
gram	-14.0841
600	-14.0843
lities	-14.0849
▁hone	-14.085
ulations	-14.0856
▁expla	-14.0861
complete	-14.0865
▁ferri	-14.0866
▁gar	-14.0869
pleasure	-14.0873
▁sucky	-14.0874
▁evi	-14.0875
uncle	-14.0884
earn	-14.0891
▁calli	-14.0893
▁consisten	-14.0896
lat	-14.0897
track	-14.0899
▁$6	-14.0901
bies	-14.0904
eing	-14.0909
dang	-14.0917
runch	-14.092
ounds	-14.0925
nfold	-14.0926
rn	-14.0928
late	-14.0939
▁cds	-14.095
▁bre	-14.0959
pri	-14.0962
amper	-14.0968
rant	-14.097
▁doub	-14.0973
▁guid	-14.0974
ieve	-14.0974
sut	-14.0978
asper	-14.0987
angle	-14.0988
▁scand	-14.0996
lved	-14.0996
▁saf	-14.0996
dly	-14.0998
qualified	-14.0998
function	-14.1
babysit	-14.1007
steak	-14.101
▁parti	-14.1012
vic	-14.1024
aken	-14.1025
21	-14.1032
muscle	-14.1034
belie	-14.1034
▁marke	-14.1037
clerk	-14.104
brush	-14.1051
dermat	-14.1051
▁ant	-14.1052
▁aga	-14.1052
lept	-14.1057
▁sham	-14.1067
▁siz	-14.1074
ach	-14.1075
castle	-14.1077
clined	-14.1087
nugget	-14.1092
[	-14.1093
llows	-14.1096
▁pep	-14.1096
thoughtful	-14.1097
through	-14.1098
checkout	-14.11
sufficien	-14.1101
wrapping	-14.1105
ull	-14.111
quisit	-14.1116
▁rou	-14.1122
▁demon	-14.1125
burning	-14.1125
scared	-14.1129
wisely	-14.1131
▁pointing	-14.1132
ranch	-14.1138
jar	-14.114
passed	-14.1145
▁sid	-14.1148
▁ram	-14.1156
▁activ	-14.1157
oes	-14.1158
▁malte	-14.1158
orta	-14.1163
urd	-14.1168
keeper	-14.1169
claim	-14.1181
bor	-14.1181
▁perse	-14.1185
▁negativ	-14.119
jet	-14.1201
brid	-14.121
scale	-14.1214
letter	-14.1215
▁reconcil	-14.1215
▁busines	-14.1218
rk	-14.122
▁fina	-14.1222
ards	-14.1222
ladder	-14.1225
80	-14.1228
▁mang	-14.1234
egan	-14.1236
ture	-14.1244
peare	-14.1252
istan	-14.1255
▁academ	-14.1259
▁kee	-14.1264
ixed	-14.127
ants	-14.127
▁jersey	-14.1277
▁reptile	-14.1279
aged	-14.1279
▁pric	-14.128
marine	-14.128
zzl	-14.1282
▁prev	-14.1283
▁condolence	-14.1283
who	-14.1293
▁hub	-14.1296
▁yankee	-14.1299
▁comprehen	-14.1304
entative	-14.1308
judge	-14.1309
undra	-14.1315
▁pou	-14.1324
▁violen	-14.1329
▁responsibilit	-14.1338
aste	-14.134
saw	-14.1342
▁scrub	-14.1346
▁girlf	-14.1347
path	-14.1348
▁unsettl	-14.1351
▁giver	-14.1353
▁refresh	-14.1357
▁120	-14.1362
ula	-14.1365
▁hawai	-14.1365
ticle	-14.1368
hank	-14.137
▁adrenalin	-14.1377
▁affor	-14.1377
▁perso	-14.1379
▁drench	-14.1383
date	-14.1384
tressful	-14.1386
otic	-14.1391
ympics	-14.1395
▁cockroa	-14.1398
evolution	-14.1398
▁unhap	-14.1399
▁consequen	-14.1399
ombat	-14.1399
liticians	-14.14
dolph	-14.14
thyroid	-14.14
▁miraculous	-14.14
▁20/20	-14.14
▁acquaintance	-14.14
▁baltimore	-14.14
▁blizzard	-14.14
▁desolate	-14.14
▁discriminat	-14.14
▁hurricaine	-14.14
▁institution	-14.14
▁negotiate	-14.14
▁pesticides	-14.14
▁portrait	-14.14
▁python	-14.14
▁savannah	-14.14
▁scapegoat	-14.14
▁xperia	-14.14
▁hydroplan	-14.14
▁scallop	-14.14
▁pivot	-14.14
▁resturaunt	-14.14
▁cassette	-14.14
▁snapchat	-14.14
▁undergrad	-14.14
▁flavour	-14.14
▁seashell	-14.14
flamingo	-14.14
▁pervert	-14.14
▁insensitivity	-14.14
▁parkinson	-14.14
▁dissappointed	-14.14
▁discreet	-14.14
▁implement	-14.14
▁pratice	-14.14
▁guidance	-14.14
▁transaction	-14.14
popula	-14.14
▁decrease	-14.14
▁sophmore	-14.14
▁kidnappers	-14.14
▁vanished	-14.14
▁civilian	-14.14
▁arnold	-14.1401
▁waterbug	-14.1401
ennial	-14.1401
▁microchip	-14.1401
▁unprofessional	-14.1401
▁notcied	-14.1401
▁authorities	-14.1401
▁opinon	-14.1401
▁quater	-14.1402
▁shagg	-14.1402
▁bruce	-14.1402
▁impulsive	-14.1402
threenager	-14.1402
▁crutch	-14.1403
▁advil	-14.1403
▁compromise	-14.1403
▁vigor	-14.1403
▁relapse	-14.1403
dddd	-14.1403
▁chop	-14.1403
estic	-14.1404
▁sno	-14.1404
▁congratual	-14.1404
▁chaise	-14.1405
▁extrac	-14.1405
▁gdp	-14.1405
▁frosting	-14.1405
urban	-14.1406
▁dispens	-14.1406
▁discontent	-14.1407
▁deciev	-14.1408
leston	-14.1409
▁repell	-14.1409
▁hikin	-14.1409
▁revel	-14.141
▁2001	-14.141
▁heartbeat	-14.1411
▁invention	-14.1412
▁puff	-14.1414
▁faze	-14.1415
▁unplugg	-14.1415
▁versatil	-14.1416
▁introspecti	-14.1417
▁essay	-14.1418
▁oilers	-14.1419
▁appointme	-14.1419
dinate	-14.1423
▁embarres	-14.1424
▁eli	-14.1425
▁migra	-14.1425
rovi	-14.1425
▁downgrade	-14.1425
▁paintball	-14.1426
▁diabetic	-14.1426
sometimes	-14.1426
▁substitue	-14.1429
▁ginger	-14.143
▁imp	-14.143
alepe	-14.143
dashi	-14.1431
▁manufacturer	-14.1432
▁astron	-14.1433
help	-14.1435
minals	-14.1437
▁fitty	-14.1439
▁wrench	-14.1439
▁isolating	-14.1442
▁peop	-14.1442
wo	-14.1442
announce	-14.1442
reference	-14.1443
▁maj	-14.1444
renovat	-14.1446
▁187	-14.1448
xie	-14.1449
▁accurate	-14.145
▁drenched	-14.1454
▁48	-14.1454
responsibility	-14.1454
▁burgl	-14.1458
▁shoo	-14.146
▁glance	-14.1462
ati	-14.1464
▁loo	-14.1466
fund	-14.1468
▁worl	-14.1469
tangible	-14.1474
yed	-14.1475
▁characteristic	-14.1476
nders	-14.148
▁38	-14.1481
▁ret	-14.1484
▁alex	-14.1486
▁hypocrit	-14.1486
▁thiev	-14.1488
ply	-14.149
▁victor	-14.1492
▁comprehensi	-14.1507
serving	-14.151
raveling	-14.151
omma	-14.151
▁pff	-14.1511
azy	-14.1511
▁flattered	-14.1514
▁poten	-14.1517
arm	-14.1517
cass	-14.1517
▁peo	-14.152
▁mozz	-14.1521
▁boog	-14.1526
▁colle	-14.1527
▁wee	-14.1528
▁neve	-14.1529
▁shrug	-14.153
eraunt	-14.153
jun	-14.1531
▁derp	-14.1533
▁hitman	-14.154
main	-14.1544
▁degrade	-14.1544
koal	-14.1548
punctu	-14.1548
▁fester	-14.1552
▁realtor	-14.1553
currenc	-14.1556
▁statu	-14.1557
isco	-14.157
restrain	-14.1576
ater	-14.1581
▁lovin	-14.1584
ode	-14.1585
ntact	-14.1586
▁reconcile	-14.1588
▁}	-14.1594
eval	-14.16
ookie	-14.1601
cease	-14.1601
lier	-14.1604
enses	-14.1605
digger	-14.161
vermin	-14.1611
▁realtive	-14.1612
▁electri	-14.1619
▁buick	-14.1621
stakes	-14.1623
▁apprehend	-14.1623
fr	-14.1623
▁erupt	-14.1625
▁casi	-14.1628
atchi	-14.1636
▁ughh	-14.1644
▁camero	-14.1649
sleep	-14.1649
▁alli	-14.1649
▁prescri	-14.165
imental	-14.1656
give	-14.1658
▁ric	-14.1659
▁extensi	-14.1664
andel	-14.1669
eeee	-14.1669
▁coz	-14.167
▁smh	-14.167
rom	-14.167
-50	-14.169
▁offend	-14.1692
▁suffic	-14.1698
▁rene	-14.1704
lying	-14.171
agg	-14.1715
ib	-14.1716
▁[	-14.1716
dal	-14.1727
▁wonders	-14.1732
iently	-14.1735
xh	-14.174
imate	-14.1743
▁slackers	-14.1745
iction	-14.1748
▁impot	-14.1752
yon	-14.1753
▁$11	-14.1754
thinking	-14.1759
▁partial	-14.1761
▁irk	-14.1777
▁explainin	-14.1778
eman	-14.1782
ucky	-14.1783
▁antic	-14.1785
▁liz	-14.1798
ality	-14.1801
▁sleeve	-14.1803
won	-14.1806
▁wen	-14.1811
▁impuls	-14.1815
ame	-14.1821
▁att	-14.1828
lash	-14.1836
cou	-14.1841
blam	-14.1843
▁dayca	-14.1843
rby	-14.1846
hous	-14.1847
▁surf	-14.1855
orci	-14.1857
▁excu	-14.1859
▁mega	-14.1859
selle	-14.1863
▁hurr	-14.1876
▁wales	-14.1882
▁kicker	-14.1885
▁importa	-14.1902
▁mou	-14.1908
bikes	-14.1924
bnb	-14.1931
▁jud	-14.1938
awn	-14.194
tics	-14.194
▁overwork	-14.1944
▁firend	-14.1951
▁unappreciat	-14.1965
▁choo	-14.1973
▁fou	-14.1974
▁hack	-14.1978
minded	-14.1989
ip	-14.2006
▁flop	-14.2006
▁outlet	-14.201
▁crawli	-14.2021
ampi	-14.2027
▁monk	-14.2032
▁qua	-14.204
tunes	-14.2061
ren	-14.2063
aintance	-14.2063
▁conduct	-14.2065
▁rai	-14.2069
▁grant	-14.2069
▁pont	-14.2069
▁browse	-14.2071
amag	-14.2079
▁turnover	-14.2082
▁prim	-14.2089
cul	-14.2092
xes	-14.2092
rgi	-14.2094
-100	-14.2098
▁wir	-14.2099
▁clipp	-14.21
▁sacrifices	-14.2113
azed	-14.2115
▁hypo	-14.2117
▁consumer	-14.2118
▁hips	-14.2136
ining	-14.214
rati	-14.2143
anta	-14.2146
▁cleanes	-14.2156
▁reconnecti	-14.2157
east	-14.2161
▁compa	-14.218
▁bore	-14.2186
▁fillet	-14.2192
▁bunches	-14.2196
▁sander	-14.2199
▁od	-14.2201
▁shell	-14.2201
eli	-14.2203
▁apo	-14.2208
fy	-14.2219
▁killers	-14.2222
▁touring	-14.2238
epte	-14.2243
▁mik	-14.2243
bos	-14.2244
▁greatness	-14.2247
laces	-14.2254
▁blueberr	-14.2256
nsion	-14.2262
▁alwa	-14.227
▁uti	-14.2282
alone	-14.2286
▁nurture	-14.2295
▁impos	-14.2299
▁playst	-14.2305
ody	-14.2306
uffle	-14.2306
egging	-14.2307
▁terrif	-14.2309
rat	-14.2313
▁198	-14.2321
lic	-14.2328
▁moderat	-14.2332
▁spel	-14.2337
▁onli	-14.2357
bar	-14.2367
argent	-14.2387
▁haml	-14.2389
▁divis	-14.2393
▁stew	-14.2401
palli	-14.2401
racks	-14.2409
dispose	-14.2413
▁whos	-14.2419
hump	-14.2419
▁croatian	-14.2422
ented	-14.2431
orw	-14.2433
▁crea	-14.2436
ounge	-14.2447
etroi	-14.2449
stor	-14.2453
▁propell	-14.2457
▁underestimate	-14.2464
▁hilar	-14.2465
▁nooo	-14.247
▁devis	-14.2496
mal	-14.2498
want	-14.2511
ulat	-14.2511
▁diab	-14.2513
arking	-14.2515
▁sweatsh	-14.2525
▁unexc	-14.2533
lack	-14.2534
fo	-14.2537
alysis	-14.2539
apid	-14.254
urs	-14.2541
▁gues	-14.2551
▁bandag	-14.2555
tal	-14.2576
tro	-14.2589
▁parad	-14.2591
antin	-14.2591
▁awaken	-14.2596
▁ploy	-14.2597
urg	-14.2597
▁cann	-14.2607
rwin	-14.2612
uba	-14.2618
sque	-14.2625
▁hanger	-14.2626
▁islands	-14.2637
▁scru	-14.2637
13	-14.2642
▁invade	-14.2662
mu	-14.2679
existent	-14.2714
▁ter	-14.2718
▁restor	-14.2722
▁rubbi	-14.2735
tific	-14.2746
▁coug	-14.2753
▁bla	-14.2759
▁chea	-14.2764
terrible	-14.2774
lke	-14.2775
tain	-14.2789
oved	-14.28
yfriend	-14.2802
fold	-14.2805
rator	-14.2806
▁homie	-14.2813
hing	-14.2814
author	-14.2816
▁sanit	-14.2822
itua	-14.2824
icu	-14.2827
ntage	-14.284
▁wouldv	-14.2853
▁doe	-14.2863
figure	-14.2866
▁appre	-14.2877
▁umm	-14.2878
▁entic	-14.2879
▁singl	-14.2882
▁gat	-14.2887
tta	-14.2898
kers	-14.29
nsa	-14.2913
▁sweetene	-14.2922
▁raf	-14.2925
▁loooo	-14.2929
▁rocker	-14.2929
cial	-14.2933
ples	-14.2933
▁therap	-14.2936
uf	-14.2956
▁buste	-14.2956
ires	-14.2966
cesful	-14.2988
unning	-14.299
▁pint	-14.2998
▁reminders	-14.3
tastic	-14.3007
del	-14.3007
▁miracles	-14.3007
hts	-14.3014
▁beyon	-14.3017
per	-14.3042
▁chr	-14.3044
hew	-14.3059
▁runn	-14.306
evice	-14.3067
graphic	-14.3069
▁ren	-14.3072
cooked	-14.3085
kle	-14.3091
pac	-14.3122
ddle	-14.3137
000	-14.3138
▁babie	-14.3139
nis	-14.314
▁trea	-14.3149
soon	-14.315
▁adj	-14.3154
▁destruct	-14.3154
icing	-14.3157
▁aspir	-14.3158
rticul	-14.3159
view	-14.3176
▁sweatings	-14.3178
▁sweete	-14.3192
▁import	-14.3193
▁ironic	-14.3204
▁overheat	-14.3207
anist	-14.3224
ctant	-14.3228
▁oi	-14.3236
passionate	-14.3238
pion	-14.3249
▁frust	-14.3249
bbie	-14.3255
sults	-14.3259
▁authorit	-14.3262
▁pati	-14.3266
▁rim	-14.3266
dmill	-14.3271
▁distri	-14.3272
▁succ	-14.3274
atica	-14.3276
sch	-14.3283
couldn	-14.3293
leb	-14.3296
▁furr	-14.3301
after	-14.3304
par	-14.3314
▁rede	-14.3321
weak	-14.3328
▁overhear	-14.3336
spire	-14.3337
▁mc	-14.3345
lls	-14.3346
▁stump	-14.3347
▁reinstat	-14.3348
vs	-14.3349
rf	-14.336
▁hob	-14.3363
lling	-14.3373
▁historic	-14.3383
▁imag	-14.3399
▁swimmi	-14.3402
▁fea	-14.3417
acy	-14.342
doesn	-14.3423
▁bod	-14.3424
moved	-14.3426
▁cro	-14.3431
chal	-14.3432
ramming	-14.3439
nn	-14.3444
▁cower	-14.3455
rog	-14.3461
zz	-14.3473
▁unb	-14.3475
▁indulg	-14.3476
bit	-14.3477
▁addicti	-14.3486
gar	-14.3491
▁fevers	-14.3494
clean	-14.3494
dogs	-14.3505
elope	-14.3508
tome	-14.353
▁prepa	-14.3533
acking	-14.3555
▁mai	-14.3579
▁revol	-14.3583
bas	-14.3588
▁highe	-14.3588
▁screws	-14.359
worried	-14.3591
eh	-14.3601
troy	-14.3606
cr	-14.3608
lu	-14.3641
▁ext	-14.3642
enov	-14.3642
fried	-14.3651
▁gaz	-14.3652
cove	-14.3661
hit	-14.3666
▁viol	-14.3668
▁isp	-14.3671
▁jol	-14.3672
▁rapi	-14.3701
▁nu	-14.3704
▁bearing	-14.3705
▁completl	-14.3709
▁align	-14.3715
▁trai	-14.3734
nker	-14.374
urgi	-14.3742
▁grain	-14.3753
pers	-14.3761
ammed	-14.3767
child	-14.377
moon	-14.3775
▁isolat	-14.3776
▁extrem	-14.3781
ension	-14.3788
hell	-14.3788
ementi	-14.3788
say	-14.3792
thanks	-14.3795
artin	-14.3802
sweet	-14.3804
ocks	-14.3809
roller	-14.381
interested	-14.3815
drive	-14.3823
oping	-14.3826
▁10-1	-14.3832
▁bec	-14.3833
▁sunb	-14.3837
▁reinstate	-14.3851
▁scanne	-14.3865
▁comple	-14.387
bris	-14.3872
vers	-14.3874
avi	-14.3882
position	-14.3882
▁mos	-14.3887
omat	-14.3888
▁ranger	-14.3891
tol	-14.3899
rv	-14.3904
reckless	-14.3908
▁trag	-14.3909
▁eu	-14.3921
hop	-14.3927
70	-14.3932
▁craz	-14.395
▁waddl	-14.3961
angry	-14.3968
splas	-14.3982
achi	-14.3987
neu	-14.4
needed	-14.4006
ryan	-14.4006
▁minimal	-14.4023
rump	-14.4029
▁elevate	-14.4032
▁unatt	-14.4037
▁dispos	-14.4038
ez	-14.406
tuiti	-14.4066
▁fas	-14.4084
longs	-14.4087
▁bau	-14.4087
▁endur	-14.4092
ni	-14.4096
varie	-14.4104
▁possesse	-14.4106
eager	-14.4108
▁ko	-14.4124
ggage	-14.4127
▁strang	-14.414
▁scho	-14.4144
lps	-14.4154
▁shi	-14.4172
▁lim	-14.4173
open	-14.4185
til	-14.4188
▁shan	-14.4191
idding	-14.4193
hurt	-14.4214
tray	-14.4216
yet	-14.4224
▁gaze	-14.423
act	-14.4233
▁borrower	-14.4235
iggling	-14.4236
▁persist	-14.4263
▁supporter	-14.4264
▁greens	-14.4279
ros	-14.428
bly	-14.4281
▁tom	-14.43
▁curt	-14.4305
ct	-14.4306
ggle	-14.4308
▁gau	-14.4317
▁wher	-14.4328
▁tourne	-14.433
▁burglari	-14.4338
▁googl	-14.4339
ash	-14.4379
better	-14.4389
▁worlds	-14.4407
▁tread	-14.4426
rse	-14.4437
ssion	-14.4438
▁reco	-14.4443
tching	-14.4447
▁downs	-14.4454
different	-14.4457
▁gator	-14.4461
▁fra	-14.4465
ails	-14.4476
tinct	-14.4487
▁meditat	-14.449
▁hal	-14.4503
pian	-14.452
shm	-14.4522
▁vid	-14.4532
▁tex	-14.4534
tula	-14.4537
vocation	-14.454
ngle	-14.4551
bilities	-14.4557
obey	-14.4559
close	-14.4569
▁fancie	-14.4569
▁divin	-14.458
ocal	-14.4584
▁pul	-14.4592
cle	-14.4605
uga	-14.4614
tur	-14.4617
armed	-14.4622
▁tama	-14.4622
▁treasur	-14.4623
▁suces	-14.4628
nc	-14.4663
dc	-14.4669
▁denia	-14.468
omet	-14.4682
ak	-14.4686
catch	-14.4689
fumbles	-14.4692
aske	-14.4693
62	-14.4702
▁confusi	-14.4716
ums	-14.4723
ken	-14.4734
throw	-14.474
cl	-14.474
eated	-14.4741
▁stresse	-14.4745
▁gangst	-14.4747
union	-14.475
iped	-14.476
ormation	-14.4767
▁squir	-14.4782
▁loung	-14.4793
lut	-14.4812
▁ir	-14.4818
▁inevit	-14.4818
umb	-14.483
au	-14.4846
▁belei	-14.4851
system	-14.4854
▁gab	-14.4859
trust	-14.4872
ser	-14.4878
▁sandw	-14.4879
country	-14.4896
▁chippe	-14.4896
nstruction	-14.4899
▁poss	-14.4899
▁plea	-14.4907
rating	-14.4924
why	-14.4939
rnight	-14.4949
jing	-14.4965
nj	-14.4982
ofus	-14.4985
pine	-14.4986
▁curren	-14.4986
raco	-14.5
▁awa	-14.5005
▁sla	-14.5008
yman	-14.5013
▁bathe	-14.5027
health	-14.5029
rises	-14.5042
minutes	-14.5054
▁awy	-14.5055
chable	-14.5058
ince	-14.506
stard	-14.5061
▁trucks	-14.5092
sical	-14.5104
lock	-14.5104
office	-14.5107
▁engag	-14.5111
▁laz	-14.5112
▁discourage	-14.5117
elt	-14.5138
'6	-14.5143
type	-14.5145
roll	-14.5148
grocer	-14.5153
▁conv	-14.5171
▁kiddi	-14.5171
ergy	-14.5171
ass	-14.5171
▁impro	-14.5171
ayer	-14.5176
ano	-14.5178
ication	-14.5178
▁cyst	-14.518
▁immigra	-14.5182
ibble	-14.5187
ndivid	-14.5187
bless	-14.5208
fore	-14.5211
▁brea	-14.5217
▁colo	-14.522
bbe	-14.5233
bert	-14.5234
ruth	-14.524
always	-14.5267
▁sap	-14.5275
nky	-14.5284
jay	-14.5293
4-	-14.5308
▁situations	-14.5311
thankfully	-14.5342
camping	-14.5363
surgery	-14.5366
charge	-14.5369
didn	-14.5371
tron	-14.5373
▁ene	-14.5374
chy	-14.5382
uise	-14.5385
eading	-14.5385
ssa	-14.5394
grateful	-14.5395
▁conduc	-14.5399
▁alw	-14.54
pper	-14.541
idge	-14.5414
▁sein	-14.5419
functioning	-14.5423
ankles	-14.5453
▁primari	-14.5467
blight	-14.547
▁lov	-14.5473
change	-14.5475
▁recycle	-14.5481
▁cycl	-14.5493
depend	-14.55
▁strut	-14.5513
ills	-14.5523
▁tens	-14.553
ov	-14.5531
ban	-14.5532
izz	-14.5532
aps	-14.5532
ocked	-14.5542
bird	-14.5553
oms	-14.5554
scal	-14.557
buddy	-14.5571
▁yak	-14.5571
fault	-14.5573
oop	-14.5581
av	-14.5582
placed	-14.5583
ec	-14.5584
pre	-14.5585
▁cos	-14.5603
model	-14.5605
▁unfortunat	-14.5619
lad	-14.5619
▁communicati	-14.5625
herself	-14.5649
dles	-14.5658
flying	-14.567
focus	-14.5673
seriously	-14.5683
▁startin	-14.5696
▁hallow	-14.5696
green	-14.5702
egenerate	-14.5708
winter	-14.5711
▁frequen	-14.5712
nno	-14.5724
find	-14.5728
▁convo	-14.5729
iner	-14.5731
gone	-14.5746
approved	-14.5751
chest	-14.5756
generate	-14.576
▁promo	-14.5761
normal	-14.577
▁exclude	-14.5775
▁brights	-14.5776
onio	-14.5778
dude	-14.5783
white	-14.5791
hort	-14.5792
urt	-14.5794
▁kidnapp	-14.5796
paycheck	-14.5797
helpful	-14.5801
erate	-14.5803
spring	-14.5816
aster	-14.5816
toddler	-14.5821
▁budge	-14.5823
▁squea	-14.5824
▁delica	-14.5839
ually	-14.5843
arre	-14.5849
inform	-14.5857
difference	-14.5878
runner	-14.5884
▁blat	-14.5885
▁recip	-14.5885
▁savi	-14.5887
aga	-14.5896
mas	-14.5907
bread	-14.5909
err	-14.5911
invest	-14.5912
▁flicke	-14.5915
neck	-14.5918
▁reschedul	-14.5918
gether	-14.5919
engineer	-14.5919
▁bloc	-14.5922
original	-14.5928
create	-14.5932
organized	-14.5933
direct	-14.5935
▁fami	-14.594
owner	-14.5944
split	-14.595
▁envi	-14.5954
locks	-14.5958
▁illi	-14.5967
▁respon	-14.5969
mag	-14.597
ett	-14.5971
100%	-14.5974
propos	-14.5977
▁agile	-14.5977
musician	-14.5978
▁figu	-14.5978
around	-14.598
eebie	-14.5982
▁hydra	-14.5984
▁oooo	-14.5984
▁110	-14.5985
rabbit	-14.5988
getti	-14.5989
vir	-14.599
rtation	-14.5996
piano	-14.6
▁vinc	-14.6005
confirm	-14.6015
99	-14.6016
google	-14.6018
▁expel	-14.6022
must	-14.6022
oy	-14.6023
logg	-14.6025
chemistry	-14.6027
▁angle	-14.6029
productive	-14.6032
chemical	-14.6034
ankle	-14.6035
▁disse	-14.6036
temper	-14.6038
controll	-14.6039
commercial	-14.6039
▁woul	-14.6041
▁hul	-14.6049
instinct	-14.6052
gr	-14.6052
caramel	-14.6053
presence	-14.6055
arti	-14.6059
cover	-14.6061
counsel	-14.6062
joking	-14.6067
icate	-14.6067
privacy	-14.6073
rades	-14.6073
eed	-14.6075
▁eff	-14.6076
cowboy	-14.6076
attached	-14.6077
according	-14.6081
eibar	-14.6082
upon	-14.6086
bargain	-14.6086
lso	-14.6086
26	-14.6086
skate	-14.6087
}	-14.6091
sales	-14.6093
choke	-14.6094
responsive	-14.6096
avita	-14.6098
regard	-14.6098
▁shit	-14.6104
supervis	-14.6104
198	-14.6107
produce	-14.611
▁capa	-14.6113
▁quest	-14.6118
induc	-14.6118
apolog	-14.6121
▁tonigh	-14.6122
theater	-14.6124
entitle	-14.6126
▁aggrav	-14.6132
mobile	-14.6137
▁christma	-14.614
plug	-14.6144
vast	-14.6155
▁unrest	-14.6155
▁struc	-14.6155
lay	-14.6155
glut	-14.6156
▁spee	-14.6157
▁meta	-14.6157
▁expi	-14.6158
▁relia	-14.6159
includ	-14.6162
▁chal	-14.6162
▁gods	-14.6163
fart	-14.6164
mine	-14.6165
belgi	-14.6167
▁equ	-14.617
justice	-14.6171
▁curv	-14.6173
▁pictur	-14.6175
honey	-14.6175
▁syste	-14.6178
▁confu	-14.6184
▁jou	-14.6185
participat	-14.6186
▁sugars	-14.6186
tri	-14.6192
feet	-14.6198
▁190	-14.6202
blink	-14.6205
temporar	-14.6213
zzer	-14.6213
▁repai	-14.6215
▁prou	-14.6218
excus	-14.6218
sn	-14.6221
ovie	-14.6226
relevan	-14.6229
today	-14.6232
▁dil	-14.6233
fertil	-14.6235
▁450	-14.6235
▁traum	-14.6236
▁blatan	-14.6238
dding	-14.624
safer	-14.6243
▁appal	-14.6245
satisfy	-14.6254
scream	-14.6258
bel	-14.6259
▁uncom	-14.626
ssor	-14.6264
huckle	-14.6269
trombo	-14.6273
infect	-14.6273
consol	-14.6274
▁manufact	-14.6274
▁tariff	-14.6281
▁overindulg	-14.6281
▁acces	-14.6281
▁veggie	-14.6282
version	-14.6282
▁consequence	-14.6283
▁statistic	-14.6284
▁catastroph	-14.6286
prov	-14.6299
rando	-14.6308
abili	-14.6309
hevil	-14.6312
shadows	-14.6314
sword	-14.6315
fries	-14.6315
▁kidnap	-14.632
▁espe	-14.632
pleasur	-14.6321
▁atti	-14.6324
uldnt	-14.6325
▁saler	-14.6325
▁upward	-14.6326
voca	-14.6331
omething	-14.6332
ummer	-14.6333
intellig	-14.6335
feed	-14.6342
rappe	-14.6346
onz	-14.6347
▁pizz	-14.6347
▁grum	-14.6348
▁unexpect	-14.6354
due	-14.6355
week	-14.6355
much	-14.6361
▁everyti	-14.6361
ister	-14.6362
▁anywher	-14.6364
▁liqu	-14.6365
culture	-14.6365
iers	-14.6368
▁fortunat	-14.637
culous	-14.6372
russia	-14.6373
▁exte	-14.6374
▁unplug	-14.6377
▁accomplis	-14.6378
▁uggh	-14.6381
▁aggressi	-14.6382
stalgi	-14.6383
midw	-14.6384
▁appoi	-14.6384
▁roman	-14.6385
▁conditi	-14.6385
▁intrude	-14.6388
ccess	-14.639
▁understan	-14.6393
ommend	-14.6394
▁thoug	-14.6395
▁eventuall	-14.6396
▁mornin	-14.6396
▁austral	-14.6396
▁unfortu	-14.6396
▁appetiz	-14.6396
▁advoca	-14.6397
▁apparent	-14.6397
▁ultra	-14.6398
ifted	-14.6398
▁isolate	-14.6398
▁210	-14.6399
▁overwhel	-14.6399
complish	-14.6399
miliar	-14.64
▁optimis	-14.64
holarships	-14.64
▁trustworth	-14.64
▁$$$	-14.64
gghh	-14.64
▁cataracts	-14.64
opportun	-14.64
▁-_-	-14.64
▁1937	-14.64
▁1948	-14.64
▁accelerat	-14.64
▁adolescen	-14.64
▁approcah	-14.64
▁bonanza	-14.64
▁brocolli	-14.64
▁brunette	-14.64
▁chalenge	-14.64
▁cucumber	-14.64
▁decipline	-14.64
▁druuuuuunk	-14.64
▁imidiatly	-14.64
▁magbnet	-14.64
▁mitzvah	-14.64
▁murphy	-14.64
▁opticians	-14.64
▁phenomena	-14.64
▁preapred	-14.64
▁prolyphia	-14.64
▁prudent	-14.64
▁realistoc	-14.64
▁receptive	-14.64
▁sabbath	-14.64
▁tanzania	-14.64
▁underarmour	-14.64
▁understnad	-14.64
▁veterinarian	-14.64
▁yaaaaayyyy	-14.64
▁yeqar	-14.64
▁😒	-14.64
▁😢	-14.64
cip	-14.64
▁achievnment	-14.64
▁siutation	-14.64
▁stifled	-14.64
▁uncivilized	-14.64
strzokwork	-14.64
▁altima	-14.64
▁disapointing	-14.64
▁imortant	-14.64
▁memoeries	-14.64
▁nostril	-14.64
▁reallllyy	-14.64
▁teribble	-14.64
▁understoof	-14.64
▁chatbot	-14.64
▁eeww	-14.64
▁forbidden	-14.64
▁predident	-14.64
▁1947	-14.64
▁boglin	-14.64
▁compenate	-14.64
▁mechanism	-14.64
▁subsided	-14.64
▁vigorously	-14.64
▁outbursts	-14.64
▁$$$$	-14.64
▁circulation	-14.64
▁counterparts	-14.64
▁vague	-14.64
2609	-14.64
▁brooding	-14.64
▁roku	-14.64
▁enrich	-14.64
▁misdiagnos	-14.64
▁ruthless	-14.64
▁rogue	-14.64
51171	-14.64
▁scurry	-14.64
▁agencies	-14.64
▁intergrity	-14.64
▁interupt	-14.64
▁$49	-14.64
▁nutshell	-14.64
▁loophole	-14.6401
▁cancellaed	-14.6401
▁kirby	-14.6401
rricane	-14.6401
▁1954	-14.6401
▁merchan	-14.6401
▁subconscious	-14.6401
▁damged	-14.6401
▁yoyu	-14.6401
▁sarcastically	-14.6401
▁charlie	-14.6401
▁princeton	-14.6401
decipher	-14.6401
▁clunker	-14.6401
▁arguements	-14.6401
▁minpin	-14.6401
▁eyars	-14.6401
▁1966	-14.6401
▁garner	-14.6401
ysitter	-14.6401
▁insincere	-14.6401
▁prairie	-14.6401
▁occurence	-14.6401
▁evolved	-14.6401
▁accomplisment	-14.6402
▁pastures	-14.6402
mmnn	-14.6402
mplete	-14.6402
▁pzza	-14.6402
▁plumping	-14.6402
graphs	-14.6402
▁prescript	-14.6402
▁160$	-14.6402
▁flishing	-14.6402
▁casket	-14.6403
▁furbaby	-14.6403
▁addiciting	-14.6403
▁acheive	-14.6403
▁amphi	-14.6403
▁turbo	-14.6404
▁craig	-14.6404
▁univeris	-14.6404
▁extroverted	-14.6404
tocurrenc	-14.6405
▁saison	-14.6405
▁differnt	-14.6406
▁effic	-14.6406
▁$15	-14.6406
▁reshipped	-14.6407
▁terrble	-14.6407
cedure	-14.6408
▁cookeville	-14.6408
▁slope	-14.6408
▁particu	-14.6408
▁volunt	-14.6409
▁oxy	-14.6409
▁amatures	-14.641
urize	-14.6411
▁burdensome	-14.6411
▁patron	-14.6411
▁hahahahah	-14.6411
mpany	-14.6412
▁restarant	-14.6412
▁dramatically	-14.6413
▁creatin	-14.6414
atulations	-14.6414
▁rolex	-14.6414
▁exhu	-14.6416
▁coldplay	-14.6417
accomplishements	-14.6419
▁tirp	-14.642
▁punis	-14.642
▁emoti	-14.642
▁attentve	-14.6421
jers	-14.6421
eople	-14.6421
▁brothe	-14.6421
▁ventilating	-14.6422
▁hustling	-14.6422
novati	-14.6423
▁suburban	-14.6424
▁instruct	-14.6424
▁gorge	-14.6424
▁intrigue	-14.6426
mpster	-14.6426
▁dej	-14.6426
fordable	-14.6427
scuit	-14.6429
▁hppened	-14.6429
valent	-14.6429
▁revise	-14.6431
▁frontier	-14.6431
rience	-14.6432
▁titan	-14.6434
▁wahile	-14.6435
▁convin	-14.6435
hmark	-14.6436
▁courtroom	-14.6437
▁nicde	-14.6437
741	-14.6438
▁flabby	-14.6438
▁budg	-14.6438
nerous	-14.644
▁nooooooo	-14.6443
eshadow	-14.6445
quaint	-14.6445
▁auntie	-14.6445
cessa	-14.6446
▁gorrible	-14.6447
▁monog	-14.6448
cats	-14.6449
▁eyeball	-14.6449
eeeeeeeeeee	-14.6449
quent	-14.6453
▁(*	-14.6453
▁ahhhhh	-14.6453
pes	-14.6453
▁markings	-14.6455
▁psychi	-14.6455
imagin	-14.6456
▁dilem	-14.6458
ccup	-14.6458
▁comb	-14.6461
uda	-14.6464
cari	-14.6464
sanitary	-14.6464
mplicate	-14.6465
▁uncomfor	-14.6465
▁expre	-14.6468
avelin	-14.6468
▁conceal	-14.6474
adn	-14.6475
▁pedal	-14.6477
leaf	-14.6478
▁macth	-14.648
▁nooooo	-14.6483
▁pix	-14.6484
▁amazi	-14.6488
tform	-14.649
▁nervus	-14.649
uous	-14.6491
▁snuggly	-14.6492
▁rins	-14.6494
▁ucomfortable	-14.6497
▁excus	-14.6497
illers	-14.6497
garten	-14.6498
▁flex	-14.6499
template	-14.6499
▁expectation	-14.6499
hocked	-14.6502
erstorm	-14.6503
▁grindin	-14.6506
licker	-14.6509
eria	-14.651
illian	-14.6513
▁compassi	-14.6515
▁refle	-14.6516
trospect	-14.6516
organi	-14.6518
sap	-14.652
ctual	-14.6522
quen	-14.6527
ciated	-14.653
▁academi	-14.6531
▁dafe	-14.6531
▁fixe	-14.6532
▁cunning	-14.6532
▁erecti	-14.6533
▁suppis	-14.6533
▁1970	-14.6536
▁mater	-14.6536
▁moz	-14.6537
earth	-14.6538
▁datin	-14.6538
▁digest	-14.6539
▁sanity	-14.6539
hara	-14.6541
ticks	-14.6542
adlock	-14.6544
hanging	-14.6545
▁maturely	-14.655
▁torch	-14.6556
▁exper	-14.6557
▁eventual	-14.6557
nitely	-14.6558
rtle	-14.6563
gnant	-14.6564
▁dwelling	-14.6566
▁scrubb	-14.6567
clinic	-14.6568
tape	-14.6568
khaw	-14.657
▁souffle	-14.6575
▁incomp	-14.658
▁indul	-14.658
push	-14.6581
▁cowb	-14.6587
ourself	-14.6587
▁pleasur	-14.6589
▁eviden	-14.6591
▁gril	-14.6593
▁porche	-14.66
ancially	-14.6602
▁responsibil	-14.6607
▁coache	-14.661
▁repo	-14.6611
bec	-14.6615
creation	-14.6616
▁transf	-14.6616
ully	-14.6617
▁coco	-14.6618
zone	-14.6618
▁forgotton	-14.6618
▁bulb	-14.6619
▁nik	-14.662
▁ner	-14.6622
▁develope	-14.6624
▁stockin	-14.6625
▁grandc	-14.6625
▁disappo	-14.6627
▁commando	-14.6636
▁tortur	-14.6637
▁rigorous	-14.6639
▁lineup	-14.6639
▁shoeas	-14.6639
▁sonia	-14.6639
▁mono	-14.6645
▁fixin	-14.6646
eezy	-14.6647
▁poi	-14.6652
▁lovable	-14.6654
ura	-14.6657
▁succesful	-14.6659
▁existe	-14.666
ndition	-14.6661
▁litte	-14.6668
eter	-14.6669
▁dissapointing	-14.667
▁produ	-14.6671
boys	-14.6671
▁wok	-14.6672
tensi	-14.6673
worthy	-14.6674
rna	-14.6675
▁cooperating	-14.6677
arten	-14.6677
gue	-14.6678
lity	-14.6684
▁eco	-14.6685
eeping	-14.6685
▁ridu	-14.6687
▁stur	-14.6687
ick	-14.6688
kful	-14.6696
andma	-14.6707
▁salva	-14.6709
▁guille	-14.671
fford	-14.6711
shaws	-14.6715
▁supervis	-14.6718
▁unlo	-14.6718
▁embarr	-14.672
▁interestin	-14.6721
hhhhhhhhh	-14.6721
▁eibar	-14.6729
▁absences	-14.6733
erence	-14.6734
itali	-14.6736
ucin	-14.6737
▁sweatin	-14.6745
harm	-14.6747
▁automati	-14.6754
rtunit	-14.6754
min	-14.6755
orps	-14.6759
ifice	-14.6759
looked	-14.6786
▁transp	-14.6793
▁cli	-14.6794
▁juni	-14.6795
▁als	-14.6796
tones	-14.6797
olic	-14.6802
ewwww	-14.6803
rocket	-14.6811
quire	-14.6812
cific	-14.6812
▁compel	-14.682
mole	-14.6822
maybe	-14.6826
▁bend	-14.6828
atically	-14.6838
▁rando	-14.6841
▁alon	-14.6842
▁vu	-14.6847
▁restu	-14.6849
ummies	-14.6855
lump	-14.6859
▁frida	-14.6863
repared	-14.6865
obody	-14.6866
▁uear	-14.6866
▁verbs	-14.6872
gic	-14.6878
udes	-14.6882
inals	-14.6903
nical	-14.6913
▁boos	-14.6914
▁yar	-14.692
lr	-14.6926
rwards	-14.695
exa	-14.696
▁spr	-14.6961
▁lear	-14.6962
▁kor	-14.6963
69	-14.6964
ape	-14.6971
venge	-14.6974
tumble	-14.6976
▁unforun	-14.698
eiling	-14.6988
rial	-14.6988
▁bb	-14.699
hori	-14.6998
▁-/	-14.7005
▁aloneee	-14.7009
skille	-14.7009
rbed	-14.7011
eries	-14.7012
anne	-14.7021
surprised	-14.7021
perform	-14.7025
▁clai	-14.703
uis	-14.7036
▁pushup	-14.7043
trigu	-14.7046
▁cutter	-14.7052
wwwwww	-14.7054
▁edu	-14.7069
▁exclud	-14.7074
lli	-14.7075
▁flori	-14.7076
▁eno	-14.7078
▁slimed	-14.7087
dora	-14.7102
▁chicka	-14.7107
▁imaginati	-14.7111
▁hea	-14.7112
▁dy	-14.7113
azz	-14.7114
itte	-14.712
than	-14.7121
▁numbe	-14.7143
▁marr	-14.7146
▁rubbe	-14.7155
▁coo	-14.7155
hus	-14.7157
appointed	-14.7167
cs	-14.7168
unky	-14.7168
guish	-14.7176
▁punctu	-14.7185
▁interi	-14.7187
▁moder	-14.7189
deserve	-14.7191
115	-14.7194
ude	-14.7197
▁forgiven	-14.72
▁jug	-14.7201
▁grump	-14.7204
actic	-14.7206
inal	-14.7208
▁adde	-14.7214
volv	-14.7216
▁copi	-14.722
▁detai	-14.7224
▁cherishe	-14.723
▁enthusiasts	-14.7234
nspira	-14.7243
ullet	-14.7254
ecki	-14.7256
hb	-14.7264
rrect	-14.7264
▁stres	-14.7266
sci	-14.7279
▁jewel	-14.728
▁loui	-14.7282
comes	-14.7287
ypt	-14.7287
pulse	-14.7291
▁soph	-14.7296
▁flesh	-14.7297
▁babys	-14.7299
▁ax	-14.7307
tivity	-14.7308
▁gambl	-14.7312
▁congre	-14.7317
ntance	-14.7327
part	-14.7329
▁atta	-14.7334
ffer	-14.7335
icipa	-14.7336
▁butterf	-14.7338
▁humbl	-14.735
eaching	-14.7352
jee	-14.7359
▁gripp	-14.7362
urine	-14.7362
nik	-14.7365
▁trac	-14.737
▁meter	-14.7374
sala	-14.7375
▁xb	-14.7378
sanity	-14.7379
ator	-14.7396
lpe	-14.7399
▁memori	-14.7405
▁shre	-14.7407
someone	-14.7408
rmally	-14.7409
mps	-14.741
▁imigrants	-14.7414
▁sor	-14.7415
▁intim	-14.7419
chan	-14.7419
tial	-14.743
▁colder	-14.7432
allow	-14.7436
esta	-14.7439
iev	-14.7444
skin	-14.7451
▁confi	-14.7453
theless	-14.7453
thign	-14.7454
▁seein	-14.7463
touch	-14.7476
serve	-14.7482
▁mone	-14.7493
▁operat	-14.7498
▁shir	-14.7499
▁thum	-14.7507
apply	-14.752
▁des	-14.7532
annel	-14.7533
dial	-14.7534
▁strok	-14.7542
rough	-14.7551
emergenc	-14.7578
▁rotat	-14.7581
▁attende	-14.7582
▁suckk	-14.7584
▁definitel	-14.7588
▁procedures	-14.7592
▁skillful	-14.7594
ital	-14.76
▁crown	-14.7602
▁prob	-14.7602
▁personalit	-14.7607
qued	-14.7607
rised	-14.7618
assess	-14.7626
▁acqui	-14.7628
▁surre	-14.7629
bia	-14.7659
onos	-14.7663
ria	-14.7667
hould	-14.7668
berg	-14.7675
trans	-14.768
ayyyyyy	-14.7682
▁cater	-14.7696
▁objecti	-14.7697
▁appr	-14.7697
nish	-14.7699
damage	-14.7701
▁scr	-14.7709
treat	-14.7713
wort	-14.7733
▁atround	-14.7766
▁unive	-14.7768
▁sil	-14.777
▁probabl	-14.7772
▁extin	-14.7812
▁batti	-14.7812
▁poot	-14.7823
▁ebt	-14.783
▁cong	-14.7835
ara	-14.7836
oth	-14.7851
▁gilb	-14.7867
▁thriller	-14.7867
erday	-14.788
▁monit	-14.7883
task	-14.7883
gna	-14.7889
▁ugg	-14.7889
inally	-14.7903
tire	-14.7905
laxati	-14.7909
sual	-14.7911
reating	-14.7916
▁thor	-14.792
▁wrack	-14.7923
swatte	-14.7924
tand	-14.7925
gery	-14.7926
ount	-14.7938
▁cuddli	-14.7941
tail	-14.7947
those	-14.7962
tubb	-14.7969
sort	-14.7979
ffe	-14.7981
eles	-14.7986
▁grandm	-14.7994
▁documentar	-14.7997
▁losers	-14.8003
▁dire	-14.8016
icious	-14.8017
ines	-14.8018
▁accepta	-14.8021
oph	-14.8036
alph	-14.8047
▁dam	-14.8053
▁irresponsibl	-14.8054
▁emer	-14.8061
usy	-14.808
▁opp	-14.8084
again	-14.8088
nation	-14.8104
cket	-14.8121
remember	-14.8123
etty	-14.8127
▁ruth	-14.8128
yl	-14.8129
aut	-14.8137
cist	-14.8146
▁frusterati	-14.8151
▁nation	-14.8164
holes	-14.8168
sad	-14.8174
▁commis	-14.8176
spiration	-14.8195
▁edito	-14.8206
liate	-14.8208
gas	-14.8215
▁pimp	-14.822
era	-14.8225
stands	-14.823
▁improvem	-14.823
▁summ	-14.8236
▁ormation	-14.8236
▁dared	-14.824
terminat	-14.8242
▁greatful	-14.8269
▁reta	-14.827
ystic	-14.8279
▁bou	-14.8284
▁therejection	-14.8308
site	-14.8309
eque	-14.8313
challan	-14.8314
▁conve	-14.8344
weed	-14.8347
eeks	-14.8355
hear	-14.8371
tio	-14.8421
ulate	-14.8421
▁lookin	-14.8427
▁thri	-14.8439
▁entail	-14.8444
▁hel	-14.8446
▁airb	-14.8447
nfuse	-14.8449
jam	-14.845
lie	-14.8452
itation	-14.846
rust	-14.8474
egar	-14.8479
aries	-14.8491
▁doug	-14.8508
cool	-14.8522
pic	-14.8525
worked	-14.8527
scratch	-14.8539
essie	-14.8546
pidat	-14.8556
▁dumbe	-14.8558
otter	-14.856
ressed	-14.8563
ates	-14.8564
tuff	-14.8576
pointment	-14.8577
▁buc	-14.8599
▁inventi	-14.8601
▁commo	-14.8602
▁unt	-14.8603
comp	-14.8623
▁kne	-14.8634
uilt	-14.8635
paid	-14.8635
▁lifes	-14.8645
▁seasoning	-14.8658
▁increas	-14.8663
umin	-14.867
▁aroun	-14.867
arks	-14.8672
▁strutt	-14.8679
errupt	-14.868
tary	-14.8683
▁reflecti	-14.869
▁shrin	-14.8699
oral	-14.8714
yu	-14.8729
bno	-14.8736
hec	-14.8737
pla	-14.8748
anny	-14.8759
phase	-14.8762
▁ohhhhhh	-14.8766
▁unc	-14.878
acin	-14.8783
nest	-14.8784
▁drugg	-14.8785
▁jett	-14.8787
▁norma	-14.8789
▁inhal	-14.8804
abbit	-14.881
▁smo	-14.8816
▁burdens	-14.8821
▁lucki	-14.8828
▁cring	-14.8898
▁sem	-14.8909
crawli	-14.8912
lfr	-14.8913
▁utiliz	-14.8922
▁sof	-14.8922
▁fidelity	-14.8952
uate	-14.8959
▁atart	-14.8965
separa	-14.898
▁mig	-14.9
▁chilli	-14.9003
▁understandabl	-14.9011
wallow	-14.9014
gn	-14.9018
backs	-14.9024
eating	-14.9032
▁shortc	-14.9035
▁somewh	-14.904
▁specializ	-14.9041
othing	-14.9051
iiiiii	-14.9058
ntries	-14.9062
ayyyyy	-14.907
iss	-14.9082
▁canno	-14.9089
mily	-14.91
tures	-14.915
lades	-14.9153
othe	-14.9163
rake	-14.917
▁checker	-14.9181
ante	-14.9182
uation	-14.9183
wasn	-14.9195
reckle	-14.9203
▁bel	-14.9214
nvinci	-14.9215
nly	-14.922
thur	-14.9229
erical	-14.9236
▁smalle	-14.924
▁comi	-14.9273
▁harde	-14.9283
▁exp	-14.9283
mitt	-14.9286
▁presente	-14.9287
hy	-14.9287
▁brin	-14.9307
▁exa	-14.931
▁independ	-14.9314
▁cher	-14.9323
▁mut	-14.9328
▁prov	-14.9337
sat	-14.9345
▁wol	-14.9347
▁tryout	-14.936
▁chap	-14.9363
ils	-14.9368
physical	-14.9373
▁crosse	-14.9373
trol	-14.9379
ights	-14.9406
▁performe	-14.9416
▁han	-14.9447
xic	-14.9449
▁inspirin	-14.9458
▁respons	-14.9465
playing	-14.9468
could	-14.947
morning	-14.9473
ceive	-14.9473
▁torche	-14.9491
▁happe	-14.9493
▁otherday	-14.9493
physic	-14.9497
▁sty	-14.9498
far	-14.9501
phas	-14.9508
endan	-14.952
▁scoop	-14.9527
forward	-14.9528
▁funk	-14.9544
orde	-14.9552
▁sacr	-14.9556
ayyy	-14.9559
pin	-14.9562
▁daz	-14.9572
▁emotions	-14.9578
▁clumsi	-14.9582
itten	-14.9593
▁pall	-14.9601
rable	-14.9601
▁encourag	-14.9606
▁arou	-14.9612
aft	-14.9614
dmother	-14.9616
ci	-14.9616
▁hou	-14.9631
oot	-14.9637
perate	-14.9654
▁defende	-14.9656
▁hearted	-14.9658
▁gram	-14.9665
same	-14.9676
▁breat	-14.9676
▁wid	-14.9692
fence	-14.9702
▁cass	-14.9705
dill	-14.9709
▁fren	-14.9712
eception	-14.9712
anger	-14.9733
▁unl	-14.9741
pretty	-14.9748
▁musica	-14.9756
rify	-14.9766
umm	-14.9767
rassed	-14.9771
▁smi	-14.9778
▁spinn	-14.9791
emp	-14.9792
bes	-14.9805
▁supr	-14.9806
▁pad	-14.9809
▁ipa	-14.9816
sur	-14.9829
yone	-14.9835
near	-14.9865
▁abou	-14.9873
▁carr	-14.9876
lattered	-14.9885
izza	-14.9888
ift	-14.9893
▁consiste	-14.9899
▁hap	-14.9904
▁magni	-14.9912
▁sli	-14.9916
arly	-14.9918
fi	-14.9918
▁soli	-14.9919
high	-14.992
▁persiste	-14.9922
52	-14.9933
dealer	-14.9936
tie	-14.9938
yours	-14.9939
▁assess	-14.9942
tric	-14.9944
▁impo	-14.9945
proud	-14.9946
inda	-14.9953
rive	-14.9964
answer	-14.9974
atta	-14.9978
▁toni	-14.998
heck	-14.9992
▁acce	-14.9998
interview	-15.0006
alr	-15.0017
drated	-15.002
ada	-15.0032
gain	-15.0045
▁sk	-15.0047
▁enli	-15.0051
cts	-15.0052
▁wre	-15.0056
▁raps	-15.0061
tell	-15.0065
▁clip	-15.0067
icker	-15.0088
▁misbehav	-15.0089
▁chains	-15.0108
▁tomorr	-15.0112
pred	-15.0145
arious	-15.0145
ntist	-15.0149
▁peas	-15.018
ners	-15.0181
tribut	-15.0208
mbi	-15.0227
lone	-15.0228
▁woooo	-15.0234
▁protecti	-15.0237
▁positives	-15.0247
asked	-15.0263
rce	-15.027
▁eg	-15.0287
ubic	-15.0304
coup	-15.0322
quenc	-15.0326
▁bugge	-15.033
▁bled	-15.0331
▁spinne	-15.0336
▁ci	-15.0366
stuff	-15.0368
▁yourse	-15.0372
fred	-15.0378
emo	-15.0383
onda	-15.0394
ached	-15.0398
▁recook	-15.0404
vement	-15.0408
saver	-15.0416
▁lem	-15.0417
▁printe	-15.0418
tag	-15.0419
▁yearn	-15.0422
▁misbehave	-15.0446
▁kinder	-15.0456
36	-15.0459
nner	-15.046
▁swoo	-15.0461
tim	-15.0464
▁haw	-15.0472
▁clove	-15.0481
▁tau	-15.0483
▁shapes	-15.0488
ranted	-15.0496
movie	-15.0569
▁communi	-15.0572
▁daugh	-15.0576
▁hesita	-15.0576
▁gna	-15.0603
gu	-15.0604
rash	-15.0606
plash	-15.0609
▁remotel	-15.0635
reasonabl	-15.0648
▁cok	-15.0651
ortable	-15.0671
things	-15.0672
tch	-15.0716
eps	-15.0736
store	-15.0738
▁inv	-15.0765
gina	-15.0782
apes	-15.0838
▁shopper	-15.0838
settling	-15.0841
oward	-15.0844
clips	-15.0852
count	-15.089
sca	-15.089
▁elev	-15.0899
▁flor	-15.0901
emeber	-15.0902
probably	-15.0906
▁fum	-15.0907
▁ira	-15.0914
▁minu	-15.0915
ubb	-15.0923
extremel	-15.0926
▁hun	-15.0933
ean	-15.0936
nking	-15.0955
▁expen	-15.0958
torn	-15.0962
xica	-15.0968
etical	-15.0978
▁someh	-15.098
wrong	-15.0992
▁wayne	-15.1002
rug	-15.105
walking	-15.1063
▁healthie	-15.1087
ready	-15.1089
▁refinance	-15.1089
eff	-15.1105
▁lonl	-15.1123
hroni	-15.1132
elp	-15.1171
mmer	-15.1175
▁relie	-15.1184
harming	-15.1191
driving	-15.121
affl	-15.1213
ired	-15.1233
▁bleache	-15.1235
▁outer	-15.124
▁lan	-15.1247
▁diligen	-15.1275
each	-15.1284
▁cran	-15.1284
tian	-15.129
▁jui	-15.1312
98	-15.1315
▁fled	-15.1326
tball	-15.1327
stra	-15.1339
rod	-15.1342
▁broc	-15.1362
erd	-15.1375
avage	-15.1381
ages	-15.1385
culp	-15.1393
admill	-15.1394
inea	-15.1406
▁oc	-15.1419
▁initia	-15.1438
sides	-15.144
nle	-15.1457
sta	-15.1467
7/	-15.1476
ipment	-15.1478
plen	-15.148
unted	-15.1491
afraid	-15.1496
rly	-15.1504
▁bot	-15.1531
▁pals	-15.1553
rak	-15.1563
agle	-15.158
ivalr	-15.1585
oc	-15.1593
rns	-15.1613
▁luckil	-15.1619
cription	-15.1643
▁awes	-15.1659
▁intell	-15.1681
gger	-15.1685
▁hacke	-15.1695
rab	-15.1715
bling	-15.1716
lism	-15.1721
▁feas	-15.1722
imes	-15.1728
▁retrac	-15.1746
rents	-15.175
▁horr	-15.1755
owl	-15.1762
nty	-15.1773
▁compo	-15.1776
ordan	-15.1777
dh	-15.1782
empti	-15.1792
cc	-15.1823
xistent	-15.1824
yc	-15.1824
▁nan	-15.1837
▁paral	-15.1841
raise	-15.189
haved	-15.1897
boss	-15.1902
▁mailing	-15.1911
bors	-15.1929
didnt	-15.1934
wee	-15.1941
▁ewwwwwww	-15.1945
inders	-15.1985
yyyy	-15.2
▁plat	-15.2018
▁roa	-15.2051
strang	-15.2052
sounds	-15.2078
rson	-15.2084
eacher	-15.209
▁fis	-15.2094
dnt	-15.2095
▁dose	-15.2145
▁doin	-15.2148
nake	-15.2177
▁missionar	-15.2178
ouse	-15.2195
relationship	-15.2196
rity	-15.2211
ddi	-15.2215
ogg	-15.2227
▁emp	-15.226
kes	-15.2302
▁commu	-15.2317
▁overlook	-15.232
yli	-15.2348
taske	-15.2349
rst	-15.2357
inking	-15.2361
▁arro	-15.2372
▁minded	-15.2377
▁9-	-15.2386
others	-15.2418
cession	-15.242
▁finaliz	-15.2423
mor	-15.2425
▁amaz	-15.2427
selling	-15.2443
cur	-15.2473
kea	-15.248
loo	-15.2515
nished	-15.2524
▁graci	-15.2553
ph	-15.2555
▁energe	-15.2555
▁toad	-15.2559
shame	-15.256
commod	-15.2561
loss	-15.2566
range	-15.2581
cess	-15.2588
aughter	-15.2588
rou	-15.2604
sop	-15.2605
weekend	-15.2627
ided	-15.2645
pick	-15.2651
clog	-15.2659
civiliz	-15.2668
ege	-15.2669
overs	-15.2672
jo	-15.2707
ession	-15.2711
▁gumb	-15.2716
▁electi	-15.2719
fing	-15.2734
▁gradual	-15.2752
▁reserv	-15.277
▁diagno	-15.2784
graduate	-15.2789
nquen	-15.2807
▁inters	-15.281
▁aim	-15.2828
ellige	-15.2828
younger	-15.2828
▁lac	-15.2831
peration	-15.2831
past	-15.2835
▁unp	-15.2846
▁usag	-15.285
▁ass	-15.285
raid	-15.2859
▁everyo	-15.2868
avid	-15.2887
zy	-15.2889
noi	-15.2903
tious	-15.2911
bys	-15.2917
▁rooma	-15.2927
niv	-15.2943
▁produc	-15.2961
▁procrastinati	-15.2986
tead	-15.3041
filt	-15.3051
▁alcoholi	-15.3052
▁micros	-15.3058
next	-15.306
itu	-15.3088
movies	-15.3092
▁tal	-15.3109
mmed	-15.3115
nting	-15.3128
rren	-15.3151
ort	-15.3183
▁exhaus	-15.3186
▁ques	-15.3189
▁dele	-15.3191
▁refra	-15.3203
ello	-15.3219
music	-15.3242
sses	-15.3253
second	-15.3264
▁injust	-15.3274
bunch	-15.3279
▁butterfl	-15.329
pc	-15.3296
▁starf	-15.3299
▁shees	-15.3307
issed	-15.3311
plans	-15.3314
▁carri	-15.3316
luckily	-15.3326
▁critic	-15.336
▁bene	-15.3376
▁swee	-15.3383
ads	-15.3388
mad	-15.3397
▁licen	-15.3398
alse	-15.3403
ale	-15.3421
kachu	-15.344
llowee	-15.3451
erie	-15.3458
▁acr	-15.3469
▁riii	-15.3469
▁scorche	-15.3475
burn	-15.3498
buffe	-15.3514
▁dun	-15.3527
lcon	-15.353
ori	-15.3532
sic	-15.354
▁toll	-15.3552
▁lig	-15.3574
ener	-15.3582
enly	-15.3598
llion	-15.3606
▁alway	-15.3608
▁hesitat	-15.3612
▁frie	-15.3618
ths	-15.3624
lonely	-15.3629
constant	-15.363
▁asso	-15.3642
teacher	-15.3661
rland	-15.3664
▁deba	-15.3669
dream	-15.3688
▁resta	-15.3693
merge	-15.37
squat	-15.3701
lber	-15.3703
dable	-15.371
▁org	-15.3725
weather	-15.3745
fair	-15.3755
▁len	-15.3757
sto	-15.3765
erced	-15.3774
arry	-15.3776
tan	-15.3782
tent	-15.3791
sched	-15.3792
parent	-15.3802
lit	-15.3811
ctua	-15.3826
▁seri	-15.383
relax	-15.3835
cancer	-15.3839
ealthy	-15.3864
follow	-15.3868
fel	-15.3871
rth	-15.3886
▁creati	-15.3894
▁happene	-15.39
pour	-15.3915
girls	-15.3945
iles	-15.396
kel	-15.3994
hoo	-15.4007
omp	-15.4013
struct	-15.4014
▁user	-15.4016
rassing	-15.4018
secret	-15.4027
war	-15.403
pray	-15.4043
amil	-15.4048
invite	-15.4059
convenient	-15.4064
lands	-15.4069
gee	-15.4069
con	-15.407
▁artif	-15.4079
▁confiden	-15.4083
ylv	-15.4099
listic	-15.41
▁endings	-15.4124
feeling	-15.4128
▁doubl	-15.4148
▁longe	-15.4152
org	-15.4155
▁bette	-15.4158
rh	-15.4164
search	-15.417
bills	-15.4186
avat	-15.4218
loan	-15.4238
snes	-15.4256
▁certi	-15.4258
▁hurri	-15.4261
▁bett	-15.4261
▁lsa	-15.4262
▁ultimat	-15.4262
azing	-15.4263
tay	-15.4263
▁messi	-15.4285
church	-15.4301
photos	-15.4309
▁apath	-15.4314
dollars	-15.4319
social	-15.4325
bur	-15.4329
everywhere	-15.4343
amount	-15.4344
dos	-15.4362
sel	-15.4362
yesterday	-15.4365
unds	-15.4369
locked	-15.4375
deal	-15.438
▁salo	-15.4381
trate	-15.4382
▁laund	-15.439
roommate	-15.4392
annoyed	-15.4393
sunday	-15.4393
▁stro	-15.4395
florida	-15.4409
▁slic	-15.4415
hav	-15.4418
plan	-15.4419
▁unco	-15.4435
jealous	-15.4452
▁searche	-15.4453
▁locat	-15.4457
aceful	-15.4482
▁ec	-15.4491
dile	-15.4491
▁ventur	-15.4502
vemen	-15.4504
▁dist	-15.4509
bus	-15.4515
cally	-15.4525
issa	-15.4529
terrified	-15.4532
coaster	-15.4533
nship	-15.4539
glad	-15.4544
easier	-15.4557
▁inconvenie	-15.4558
disappointed	-15.4564
ghin	-15.4568
rdan	-15.4572
before	-15.4588
chel	-15.4593
longer	-15.4599
ingle	-15.4606
lves	-15.4611
hydrate	-15.4611
▁prefere	-15.4613
gli	-15.4644
esse	-15.4653
goodness	-15.4659
▁mowe	-15.4664
anxious	-15.4673
picture	-15.4675
▁forgo	-15.4682
aria	-15.4701
otion	-15.4706
▁behavi	-15.4707
impressed	-15.471
▁arr	-15.4713
▁fellows	-15.4718
announc	-15.4732
learning	-15.474
hhh	-15.4741
flight	-15.4759
lize	-15.4773
bummer	-15.4788
▁desperat	-15.4789
tel	-15.4791
rds	-15.4797
mates	-15.4805
rbo	-15.4812
unda	-15.4822
tdon	-15.4837
magine	-15.4849
▁difficul	-15.4853
report	-15.486
cried	-15.487
ndica	-15.4894
plann	-15.4897
stranger	-15.4902
fact	-15.4911
▁folde	-15.4913
lla	-15.4915
shell	-15.4921
▁initiate	-15.4927
hero	-15.4929
▁commen	-15.494
iddl	-15.4941
sandwich	-15.4955
▁seasone	-15.4964
pus	-15.4987
▁appoint	-15.5008
▁yanke	-15.5013
▁mul	-15.5016
obble	-15.5062
deep	-15.5063
▁modif	-15.5065
mcdonald	-15.5066
inning	-15.509
▁peopl	-15.5092
chief	-15.5106
awkward	-15.5117
▁rewi	-15.5119
lives	-15.5134
illy	-15.5145
anti	-15.5148
guilty	-15.5158
presentation	-15.516
devil	-15.5167
ntic	-15.517
nter	-15.517
orc	-15.517
comfort	-15.5177
rmed	-15.5183
▁coup	-15.5189
▁stree	-15.5189
▁tig	-15.5202
ractor	-15.5205
particular	-15.5213
gers	-15.523
recently	-15.5231
nver	-15.5237
▁cru	-15.5243
fan	-15.5244
exter	-15.5246
mum	-15.5268
ightlif	-15.5269
▁une	-15.5273
fie	-15.528
nto	-15.5284
pies	-15.5285
shadow	-15.5294
▁fini	-15.5297
▁involv	-15.5297
discover	-15.53
cd	-15.5304
▁reduc	-15.5304
judg	-15.5304
mone	-15.5305
knock	-15.5322
interest	-15.5326
leve	-15.5334
bigger	-15.5357
lette	-15.5359
nostalgic	-15.5376
energy	-15.5381
resor	-15.5382
dirty	-15.54
nail	-15.54
▁aspirin	-15.5402
ob	-15.5414
awesome	-15.5419
▁vic	-15.5427
climb	-15.5432
punk	-15.5434
▁sco	-15.5463
▁bringin	-15.5467
▁revi	-15.5471
solve	-15.5477
embarrassed	-15.5498
crowd	-15.5503
▁intimat	-15.5533
▁flo	-15.5538
match	-15.5552
personal	-15.5567
llege	-15.5578
arant	-15.5579
▁lux	-15.5588
erving	-15.5596
register	-15.5597
lap	-15.5607
pulsion	-15.5609
ree	-15.5614
furious	-15.5618
▁attent	-15.5619
▁peri	-15.5636
▁(1	-15.5636
mster	-15.5646
▁realis	-15.5648
potty	-15.565
▁certif	-15.5664
excuse	-15.5664
▁catere	-15.5665
▁tenta	-15.5678
professor	-15.5682
national	-15.5695
product	-15.5697
athletic	-15.5707
shark	-15.5709
nov	-15.5712
throat	-15.5713
horse	-15.5718
picking	-15.5726
▁expedi	-15.5735
official	-15.5739
escape	-15.574
sts	-15.5742
extend	-15.5752
croatia	-15.5758
material	-15.5758
glasses	-15.5764
▁compos	-15.5768
laid	-15.5774
significant	-15.5775
political	-15.578
▁poin	-15.5789
▁infam	-15.5791
▁ewwwww	-15.5797
▁playi	-15.5808
▁togh	-15.5816
35	-15.5817
fra	-15.5818
hopeful	-15.5819
▁slammin	-15.582
▁peac	-15.5825
panic	-15.5827
boat	-15.5828
vation	-15.5829
▁patte	-15.5833
▁sixt	-15.5837
wolf	-15.5837
everything	-15.5839
source	-15.5845
weigh	-15.5851
▁accomplishe	-15.5858
▁alo	-15.5859
▁stun	-15.587
lcomed	-15.5872
▁rar	-15.5874
▁secretar	-15.5882
ordina	-15.5905
assuming	-15.5908
▁der	-15.5909
▁overprotect	-15.5914
upgrade	-15.5949
flex	-15.5952
wrap	-15.5955
▁boa	-15.5965
▁kin	-15.5984
adiator	-15.5994
sexual	-15.5995
occurr	-15.5996
▁shee	-15.5999
arming	-15.6
pun	-15.6009
www	-15.6013
lege	-15.6014
▁forge	-15.6017
bulb	-15.602
disgust	-15.6021
ttttttt	-15.6033
sm	-15.604
▁proc	-15.6041
sympath	-15.6043
sync	-15.6045
hunter	-15.6046
▁hypocri	-15.6047
weakness	-15.6047
ges	-15.6048
facetime	-15.6055
▁flashi	-15.6057
explor	-15.6057
1970	-15.6063
ohhhh	-15.6069
literate	-15.607
modern	-15.6079
nickel	-15.608
arrange	-15.6081
rains	-15.6085
cope	-15.6087
▁immig	-15.6088
efficient	-15.609
pire	-15.609
stment	-15.6093
▁probab	-15.6094
invent	-15.6101
characteristic	-15.6103
▁somethi	-15.6106
▁posses	-15.6107
ading	-15.6115
achiev	-15.6116
brake	-15.6118
▁gall	-15.614
cringe	-15.6143
▁impre	-15.6149
lender	-15.615
cus	-15.615
▁compass	-15.6159
aus	-15.6162
their	-15.6167
hink	-15.6169
staff	-15.6173
edge	-15.6181
▁indepen	-15.6182
renovate	-15.6183
vent	-15.6192
▁glanc	-15.6195
mboli	-15.6209
nging	-15.6209
arling	-15.6211
verse	-15.6212
doggo	-15.622
crow	-15.6228
energ	-15.6245
▁slamme	-15.6251
▁uncomfo	-15.6255
categor	-15.6258
hadows	-15.6264
olved	-15.628
▁pattern	-15.6286
▁leftove	-15.6289
▁congratu	-15.6295
cheater	-15.6301
▁biochem	-15.6304
▁favo	-15.6306
pologize	-15.6308
finger	-15.6313
▁studen	-15.6314
▁hurrican	-15.6317
▁entir	-15.6318
bang	-15.6319
▁appoin	-15.633
▁distanc	-15.6333
▁physio	-15.6341
▁neighbo	-15.6343
▁ventilat	-15.6344
tening	-15.6351
numbers	-15.6361
▁undert	-15.6364
▁incred	-15.6365
▁interv	-15.6366
▁ahhhhhh	-15.6367
ouldn	-15.6372
▁cultur	-15.6373
▁nutritio	-15.6375
▁merchandis	-15.6376
▁dra	-15.6377
▁leagu	-15.6378
▁docto	-15.638
▁associat	-15.6382
cogniti	-15.6384
▁alread	-15.6384
▁technolog	-15.6385
decide	-15.6385
▁acknowled	-15.6387
▁simila	-15.6388
▁emerg	-15.6389
urvive	-15.6389
folde	-15.6391
▁congratulatio	-15.6391
▁rollercoaste	-15.6391
▁relationshi	-15.6393
▁restaura	-15.6394
▁experien	-15.6396
▁negl	-15.6396
▁sarcastic	-15.6398
ograph	-15.6398
8-10	-15.6399
ercise	-15.6399
barrassed	-15.6399
pectful	-15.6399
propriate	-15.64
iiiiiiiiii	-15.64
😊	-15.64
😋	-15.64
yyyyyyyyy	-15.64
zzzz	-15.64
ghbors	-15.64
ngratulations	-15.64
stigate	-15.64
ildhoo	-15.64
▁republic	-15.64
▁crypto	-15.64
▁enchil	-15.64
ndescri	-15.6402
▁enviro	-15.6403
icides	-15.6405
liver	-15.6405
derstand	-15.6406
▁absol	-15.6406
▁fidel	-15.6407
▁grrr	-15.641
tribution	-15.641
▁tarif	-15.641
essori	-15.6411
▁califor	-15.6413
beau	-15.6413
enient	-15.6417
ustrating	-15.6419
cular	-15.6419
evelope	-15.642
fluent	-15.6422
ralel	-15.6424
eopard	-15.643
▁sequ	-15.643
esterday	-15.6436
hensive	-15.6437
▁unhapp	-15.6439
versity	-15.644
patter	-15.644
dict	-15.6442
▁contrac	-15.6445
prise	-15.6448
babl	-15.6457
phoric	-15.6459
nal	-15.6468
ladas	-15.6471
▁eith	-15.6473
uddy	-15.6479
edule	-15.6481
fect	-15.6488
▁insura	-15.6489
▁justifi	-15.6497
wont	-15.6499
▁accom	-15.6501
cooperati	-15.6504
astically	-15.6504
▁folder	-15.6505
▁signifi	-15.6505
▁applica	-15.6507
matic	-15.6507
passing	-15.6509
raving	-15.6515
▁dimin	-15.6519
alg	-15.6521
thday	-15.6524
▁unpredic	-15.6526
▁weed	-15.6527
▁mira	-15.6535
▁poll	-15.654
▁sympathi	-15.654
▁serio	-15.6543
unity	-15.6543
ippe	-15.6549
kward	-15.6549
▁unemp	-15.6551
▁ohhhhh	-15.6553
▁annoye	-15.6553
▁warri	-15.6559
game	-15.6563
▁sib	-15.6564
carb	-15.6566
vol	-15.6573
thought	-15.6575
content	-15.6584
▁preci	-15.6586
cra	-15.6597
ashamed	-15.6597
▁forbid	-15.6598
niversity	-15.66
▁invol	-15.6606
▁crucia	-15.6608
▁nec	-15.6608
biolog	-15.6626
orche	-15.6637
harmed	-15.6642
kn	-15.6645
miss	-15.6648
prec	-15.6649
intended	-15.6666
lego	-15.6673
nior	-15.6674
▁neig	-15.6674
▁payi	-15.6675
▁scum	-15.6681
▁moth	-15.6689
▁snoo	-15.669
hob	-15.6717
stmas	-15.6719
▁thinkin	-15.672
▁deter	-15.6726
▁neare	-15.6732
asks	-15.6741
nnie	-15.6743
tips	-15.6745
itre	-15.6746
ssenger	-15.6749
standable	-15.677
tttttt	-15.6779
grey	-15.6782
brother	-15.6785
▁issu	-15.6792
▁overdo	-15.6794
anything	-15.6798
endship	-15.6804
▁shocke	-15.6804
nig	-15.6821
kis	-15.6825
continu	-15.6828
▁eng	-15.683
▁mille	-15.6853
fri	-15.6856
sych	-15.6874
▁toss	-15.6876
▁51	-15.6878
▁pane	-15.6882
▁ambi	-15.6889
rch	-15.6893
haun	-15.6894
▁compe	-15.69
▁ferr	-15.6912
▁connecti	-15.6912
plicate	-15.6913
rides	-15.6913
uctive	-15.6918
▁responde	-15.692
nnies	-15.6923
acker	-15.6927
187	-15.6928
▁unfi	-15.6949
udying	-15.6956
▁endu	-15.6959
hate	-15.6961
divid	-15.6962
models	-15.6966
▁yoursel	-15.6967
ith	-15.6984
▁gian	-15.6991
▁phy	-15.7017
▁anymo	-15.7018
greens	-15.7021
liant	-15.7022
▁quart	-15.703
eaming	-15.703
pital	-15.7042
▁perp	-15.7044
edgeh	-15.7046
yer	-15.7056
dator	-15.7056
▁insensitiv	-15.7056
hap	-15.7063
▁consi	-15.7064
▁intel	-15.708
ected	-15.7081
bugger	-15.7082
▁morn	-15.7082
▁cas	-15.71
equate	-15.7113
▁whenev	-15.7116
▁inte	-15.712
▁cowboy	-15.7123
▁anyth	-15.7125
▁beate	-15.7128
rack	-15.7129
▁chihu	-15.7132
plin	-15.7148
mi	-15.715
fle	-15.7158
obsess	-15.7173
aging	-15.7197
▁scoo	-15.7206
fol	-15.7213
▁stoo	-15.7215
▁expedit	-15.7219
▁christ	-15.7231
▁fib	-15.7244
▁winni	-15.7254
▁assoc	-15.7254
barassing	-15.726
▁wive	-15.7271
-1	-15.7273
▁impres	-15.7278
▁goodnes	-15.728
cci	-15.7288
▁specifi	-15.7294
▁prese	-15.7297
▁prote	-15.7297
infest	-15.73
▁technic	-15.7304
sentimental	-15.7329
icy	-15.7332
▁rabb	-15.7336
embe	-15.7338
believe	-15.7338
nched	-15.7346
ratio	-15.7354
mpan	-15.7367
▁infer	-15.7367
ostly	-15.7367
▁slime	-15.7376
pec	-15.7377
orite	-15.7396
center	-15.7398
▁scari	-15.7417
aves	-15.7427
▁defi	-15.7473
anticipat	-15.7477
eather	-15.7478
▁tempera	-15.7508
▁relocati	-15.7514
chee	-15.7514
▁psy	-15.7517
rifle	-15.7519
doors	-15.7543
tually	-15.7553
pite	-15.756
mans	-15.7569
bal	-15.7594
cit	-15.7597
▁onc	-15.7597
▁questi	-15.7599
▁expl	-15.7606
▁befor	-15.7609
accepta	-15.7613
osed	-15.7615
stack	-15.7627
osure	-15.7638
▁bing	-15.7645
ril	-15.7668
tox	-15.768
▁clow	-15.7681
lippi	-15.7688
▁astro	-15.769
ective	-15.7695
ind	-15.7711
▁digi	-15.7739
screw	-15.7749
▁ripe	-15.7779
bber	-15.778
ountin	-15.7781
vas	-15.7782
tionship	-15.7809
4/	-15.7815
omeo	-15.7821
rrowing	-15.7823
▁heigh	-15.7823
▁terr	-15.7828
alyst	-15.783
▁5-1	-15.7845
fied	-15.785
▁believin	-15.785
base	-15.7855
82	-15.7857
▁soil	-15.7865
uble	-15.7871
ange	-15.7882
arma	-15.7886
▁oth	-15.7894
roke	-15.7894
only	-15.7898
uper	-15.7902
▁unfort	-15.7906
ifi	-15.7911
▁lingeri	-15.7912
▁effe	-15.7925
gne	-15.7939
percu	-15.7958
▁carpe	-15.8008
▁urg	-15.8029
joyful	-15.8062
ui	-15.8069
tions	-15.8075
auce	-15.8087
▁reg	-15.8095
smart	-15.8104
▁shep	-15.8127
▁negat	-15.8149
▁coupo	-15.8149
▁sym	-15.8152
rape	-15.8157
▁shov	-15.8159
fat	-15.8164
tos	-15.8169
ico	-15.8175
▁missi	-15.8175
▁mot	-15.8181
upper	-15.8183
rivers	-15.8189
▁spl	-15.8198
pain	-15.8213
exteri	-15.8226
itche	-15.8236
chang	-15.8252
▁zipp	-15.829
▁sma	-15.8308
remem	-15.8318
sthetic	-15.8326
happened	-15.8346
rm	-15.836
▁relat	-15.8362
▁perha	-15.8369
nsure	-15.8399
orm	-15.84
cared	-15.8415
ndous	-15.8428
hens	-15.8431
urse	-15.8454
beard	-15.8456
eeler	-15.8464
▁stretche	-15.8483
honor	-15.8491
ene	-15.8505
ection	-15.8514
▁diverti	-15.852
▁cert	-15.8535
rows	-15.8538
los	-15.8539
▁birt	-15.8542
log	-15.8577
ystem	-15.858
▁disr	-15.8584
uh	-15.8588
▁amend	-15.8589
hire	-15.8591
▁moiste	-15.8596
umber	-15.8607
foods	-15.8614
▁scu	-15.8621
trusting	-15.863
mac	-15.8634
▁responsib	-15.8637
▁pus	-15.8663
▁workday	-15.8674
▁creepe	-15.8678
bab	-15.8679
sage	-15.8679
tall	-15.868
▁medici	-15.8689
▁ut	-15.8706
▁offs	-15.8738
comed	-15.8742
blings	-15.8748
terday	-15.8773
atch	-15.8775
wful	-15.8778
▁sou	-15.8779
olid	-15.8783
cko	-15.8798
▁dow	-15.8801
dayyyyyyy	-15.8807
06	-15.8817
held	-15.8825
▁tuc	-15.8829
petit	-15.8832
rall	-15.8851
▁lic	-15.887
orgi	-15.8884
sent	-15.8889
lations	-15.8898
aches	-15.8899
elf	-15.8911
hhhhh	-15.8913
gian	-15.893
▁hypert	-15.8942
eels	-15.8942
ost	-15.8943
painting	-15.8946
ightening	-15.8955
▁disre	-15.8956
▁marin	-15.8957
▁bik	-15.8962
stub	-15.8967
since	-15.8974
amina	-15.8976
▁fanta	-15.8987
▁elde	-15.899
share	-15.8999
▁skii	-15.9005
▁tro	-15.9015
birthday	-15.9017
dhood	-15.9033
aded	-15.9049
irls	-15.9072
ologis	-15.9077
road	-15.9106
▁promot	-15.9119
ppar	-15.9142
lking	-15.9143
▁heel	-15.9159
▁referr	-15.9161
suspect	-15.9179
▁worr	-15.9185
▁irri	-15.9189
af	-15.9214
lamme	-15.923
assign	-15.9233
hase	-15.9241
▁susp	-15.9242
▁ger	-15.9251
cars	-15.9258
neat	-15.927
▁grin	-15.9292
▁witch	-15.9335
▁practi	-15.9344
▁alb	-15.9378
sus	-15.9384
hable	-15.9398
▁creativ	-15.9408
▁outgr	-15.9413
▁lates	-15.9483
rials	-15.9485
ream	-15.9502
anging	-15.9509
wish	-15.9523
nervous	-15.9537
▁bui	-15.955
▁glas	-15.9557
sse	-15.9562
▁spik	-15.9569
▁dud	-15.9576
eu	-15.9579
[...]
